node {
  name: "global_step/Initializer/zeros"
  op: "Const"
  attr {
    key: "_class"
    value {
      list {
        s: "loc:@global_step"
      }
    }
  }
  attr {
    key: "_output_shapes"
    value {
      list {
        shape {
        }
      }
    }
  }
  attr {
    key: "dtype"
    value {
      type: DT_INT64
    }
  }
  attr {
    key: "value"
    value {
      tensor {
        dtype: DT_INT64
        tensor_shape {
        }
        int64_val: 0
      }
    }
  }
}
node {
  name: "global_step"
  op: "VarHandleOp"
  attr {
    key: "_class"
    value {
      list {
        s: "loc:@global_step"
      }
    }
  }
  attr {
    key: "_output_shapes"
    value {
      list {
        shape {
        }
      }
    }
  }
  attr {
    key: "allowed_devices"
    value {
      list {
      }
    }
  }
  attr {
    key: "container"
    value {
      s: ""
    }
  }
  attr {
    key: "dtype"
    value {
      type: DT_INT64
    }
  }
  attr {
    key: "shape"
    value {
      shape {
      }
    }
  }
  attr {
    key: "shared_name"
    value {
      s: "global_step"
    }
  }
}
node {
  name: "global_step/IsInitialized/VarIsInitializedOp"
  op: "VarIsInitializedOp"
  input: "global_step"
  attr {
    key: "_output_shapes"
    value {
      list {
        shape {
        }
      }
    }
  }
}
node {
  name: "global_step/Assign"
  op: "AssignVariableOp"
  input: "global_step"
  input: "global_step/Initializer/zeros"
  attr {
    key: "dtype"
    value {
      type: DT_INT64
    }
  }
  attr {
    key: "validate_shape"
    value {
      b: false
    }
  }
}
node {
  name: "global_step/Read/ReadVariableOp"
  op: "ReadVariableOp"
  input: "global_step"
  attr {
    key: "_output_shapes"
    value {
      list {
        shape {
        }
      }
    }
  }
  attr {
    key: "dtype"
    value {
      type: DT_INT64
    }
  }
}
node {
  name: "global_step/VarIsInitializedOp"
  op: "VarIsInitializedOp"
  input: "global_step"
  attr {
    key: "_output_shapes"
    value {
      list {
        shape {
        }
      }
    }
  }
}
node {
  name: "global_step/cond"
  op: "If"
  input: "global_step/VarIsInitializedOp"
  input: "global_step"
  input: "global_step/Initializer/zeros"
  attr {
    key: "Tcond"
    value {
      type: DT_BOOL
    }
  }
  attr {
    key: "Tin"
    value {
      list {
        type: DT_RESOURCE
        type: DT_INT64
      }
    }
  }
  attr {
    key: "Tout"
    value {
      list {
        type: DT_INT64
      }
    }
  }
  attr {
    key: "_lower_using_switch_merge"
    value {
      b: true
    }
  }
  attr {
    key: "_output_shapes"
    value {
      list {
        shape {
        }
      }
    }
  }
  attr {
    key: "_read_only_resource_inputs"
    value {
      list {
        i: 1
      }
    }
  }
  attr {
    key: "else_branch"
    value {
      func {
        name: "global_step_cond_false_2193"
      }
    }
  }
  attr {
    key: "output_shapes"
    value {
      list {
        shape {
        }
      }
    }
  }
  attr {
    key: "then_branch"
    value {
      func {
        name: "global_step_cond_true_2192"
      }
    }
  }
}
node {
  name: "global_step/cond/Identity"
  op: "Identity"
  input: "global_step/cond"
  attr {
    key: "T"
    value {
      type: DT_INT64
    }
  }
  attr {
    key: "_output_shapes"
    value {
      list {
        shape {
        }
      }
    }
  }
}
node {
  name: "global_step/add/y"
  op: "Const"
  attr {
    key: "_output_shapes"
    value {
      list {
        shape {
        }
      }
    }
  }
  attr {
    key: "dtype"
    value {
      type: DT_INT64
    }
  }
  attr {
    key: "value"
    value {
      tensor {
        dtype: DT_INT64
        tensor_shape {
        }
        int64_val: 0
      }
    }
  }
}
node {
  name: "global_step/add"
  op: "AddV2"
  input: "global_step/cond/Identity"
  input: "global_step/add/y"
  attr {
    key: "T"
    value {
      type: DT_INT64
    }
  }
  attr {
    key: "_output_shapes"
    value {
      list {
        shape {
        }
      }
    }
  }
}
node {
  name: "normalize_element/component_0"
  op: "Const"
  device: "/device:CPU:0"
  attr {
    key: "_output_shapes"
    value {
      list {
        shape {
          dim {
            size: 313
          }
        }
      }
    }
  }
  attr {
    key: "dtype"
    value {
      type: DT_DOUBLE
    }
  }
  attr {
    key: "value"
    value {
      tensor {
        dtype: DT_DOUBLE
        tensor_shape {
          dim {
            size: 313
          }
        }
        tensor_content: "LP\260\274\234\273\350?h\001\326l\352k\372\277V`\243\225\204r\004\300\252\246\256\250\007\345\005\300+\201\'@\243\336\265?\n\351[\200\2302\304?\020\261\276\277\2706\251?\177\021\244`\337u\315?\301t\277F\344\206\367\277[\215\201\\\373\032\000\300G\204\312\\\227\345\347\277\204\341\303\202\305\254\227\277k\341\014\341\311\035\312\277\r\311\222\364w\344\363?\007p\246\354\363C\343\277\353\330\215\214\243(\361\277\372\034v \223\\\323?}_\313P\3274\354?\360\204\252`\210\260\321\277\365\207\210\376\031\r\002@x\223\345\360\321^\353\277\245\3650Qm\277\316\277\204\341\303\202\305\254\227\277\031\350\250 \336\241\364\277\n\351[\200\2302\304?*\323\244\254I5\366?\232i\335\010\251\205\356?\177\021\244`\337u\315?k\341\014\341\311\035\312\277p\255\362@\317\363\332\277\204\341\303\202\305\254\227\277\377\303\211\030\017\274\362?\r\311\222\364w\344\363?Y\374\314\220\201C\371\2777\311\21254W\002@\205E\276\000\332\237\334?x\223\345\360\321^\353\277\370j\235\020\213\033\342\277\340,q\270\276\240\340?\204\341\303\202\305\254\227\277+\201\'@\243\336\265?\360\276\200<\246\223\361?\264U\251\032~\311\366?f<|\316q\377\360?\n\351[\200\2302\304?\004\215\221\332\2025\003@\n\351[\200\2302\304?\003o\326f\212\223\374?p\255\362@\317\363\332\277G\204\312\\\227\345\347\277\031\350\250 \336\241\364\277\n\351[\200\2302\304?\177\021\244`\337u\315?*\323\244\254I5\366?\032A\225(bB\345?\351e\2244\"\363\340\277\n\351[\200\2302\304?\n\351[\200\2302\304?\013\343\237Duy\363\277\227O\320\270\253\360\336?r[\222\372\327\274\361\277\340,q\270\276\240\340?G\204\312\\\227\345\347\2771\315\350p&|\305\277\r\311\222\364w\344\363?\031\217\274\030Z\001\324\277\264U\251\032~\311\366?S\243\340\210\375\242\330\277\360\276\200<\246\223\361?\370j\235\020\213\033\342\277x\223\345\360\321^\353\277G\204\312\\\227\345\347\277\253A\362\201\360\\\256\277G\204\312\\\227\345\347\277\252\373\354\214\220x\377?[\215\201\\\373\032\000\300)\304\201Y\313.\001@\204\341\303\202\305\254\227\277\370j\235\020\213\033\342\277\177\021\244`\337u\315?S\243\340\210\375\242\330\277*z\270\244\305\224\345\277\013\343\237Duy\363\277S\243\340\210\375\242\330\277\253A\362\201\360\\\256\277\031\217\274\030Z\001\324\277\252\373\354\214\220x\377?\372\034v \223\\\323?\3756\203p\220\361\342?\264U\251\032~\311\366?\003\032\230\202\001\000\003\300x\223\345\360\321^\353\277\340,q\270\276\240\340?k\341\014\341\311\035\312\277\372\034v \223\\\323?\"\'\210\330d\255\325?f<|\316q\377\360?\004\215\221\332\2025\003@\252\373\354\214\220x\377?\266\301\026\261r\225\337\277\032A\225(bB\345?\021<\214L\371\031\344??\330\255\210\262]\367?\031\350\250 \336\241\364\277S\243\340\210\375\242\330\277\244\242\000\205\014\330\356\277\"\'\210\330d\255\325?\370j\235\020\213\033\342\277\360\276\200<\246\223\361??\330\255\210\262]\367?\366\270\304\000\203\332\300\277p\255\362@\317\363\332\277LP\260\274\234\273\350?h\001\326l\352k\372\277K1\232\2206\376\327?\245\3650Qm\277\316\277\225\235\367\250\243\257\355\277\372\034v \223\\\323?\234\200\271\374\253\300\212?k\341\014\341\311\035\312\277p\255\362@\317\363\332\277y\354\321\370U\377\373?r[\222\372\327\274\361\277.F\236\004\313j\346?9\362\272\330\257\362\366\277tA\205\252\332\'\362?H\367\303\264\030\033\370\277`U\271\230\005\344\351?h\001\326l\352k\372\277\366\270\304\000\203\332\300\277\r\311\222\364w\344\363?G\204\312\\\227\345\347\277G\204\312\\\227\345\347\277JIA!\277q\270\277\341~\321\376\265\327\371\277\221d\324,@]\355?G\204\312\\\227\345\347\277\021<\214L\371\031\344?\340,q\270\276\240\340?\225\235\367\250\243\257\355\277S\243\340\210\375\242\330\277h\001\326l\352k\372\277S\243\340\210\375\242\330\277\034\316\233\320\340\014\365?k\341\014\341\311\035\312\277\017\216\354\222\360P\375\277\340,q\270\276\240\340?\260F\206\307\377\302\001@+\201\'@\243\336\265?\370j\235\020\213\033\342\277\031\217\274\030Z\001\324\277k\341\014\341\311\035\312\277}_\313P\3274\354?K1\232\2206\376\327?S\243\340\210\375\242\330\277\r\311\222\364w\344\363?K1\232\2206\376\327?S\243\340\210\375\242\330\277\370j\235\020\213\033\342\277\245\3650Qm\277\316\277*\323\244\254I5\366?}_\313P\3274\354?\372\034v \223\\\323?}_\313P\3274\354?}_\313P\3274\354?\225\235\367\250\243\257\355\277\372\034v \223\\\323?\r\311\222\364w\344\363?+\201\'@\243\336\265?\"\'\210\330d\255\325?U\211\3238\000\016\351\277+\201\'@\243\336\265?\266\301\026\261r\225\337\277p\255\362@\317\363\332\277\370j\235\020\213\033\342\277\022t\337B\363\273\375?\370j\235\020\213\033\342\277\204\341\303\202\305\254\227\277\204\341\303\202\305\254\227\277H\367\303\264\030\033\370\277\"\'\210\330d\255\325?G\204\312\\\227\345\347\277\225\235\367\250\243\257\355\277\377_\263\023\014\215\007@\020\261\276\277\2706\251?\031\217\274\030Z\001\324\277r[\222\372\327\274\361\277\340,q\270\276\240\340?JIA!\277q\270\277\"\'\210\330d\255\325?CK\247\3403\223\347?x\335\256\245\327\370\006@\370j\235\020\213\033\342\277\025u\257\310\\l\344\277\302K\217\243h\353\002@\"\'\210\330d\255\325?tA\205\252\332\'\362?\031\350\250 \336\241\364\277S\243\340\210\375\242\330\277r[\222\372\327\274\361\277\225\235\367\250\243\257\355\277h\001\326l\352k\372\277\031\350\250 \336\241\364\277\257\323\214o~\215\001\300\360\204\252`\210\260\321\277CK\247\3403\223\347?\204\341\303\202\305\254\227\277iZ\302tn\014\353?\370j\235\020\213\033\342\277\031\350\250 \336\241\364\277];\254H\010O\332?CK\247\3403\223\347?\031\350\250 \336\241\364\277\225\235\367\250\243\257\355\277\370j\235\020\213\033\342\277r[\222\372\327\274\361\277];\254H\010O\332?];\254H\010O\332?\301t\277F\344\206\367\277S\243\340\210\375\242\330\277\366\270\304\000\203\332\300\277G\204\312\\\227\345\347\277\034\316\233\320\340\014\365?\204\341\303\202\305\254\227\277k\341\014\341\311\035\312\277\257n\346\344\021\256\357?\340,q\270\276\240\340?\340,q\270\276\240\340?\301t\277F\344\206\367\277k\341\014\341\311\035\312\277S\243\340\210\375\242\330\277LP\260\274\234\273\350?d\253\307\002\370\'\n@\360\204\252`\210\260\321\277\225\235\367\250\243\257\355\277}_\313P\3274\354?\r\311\222\364w\344\363?\222e\244\262\251\r\364\277S\243\340\210\375\242\330\277r[\222\372\327\274\361\277\227O\320\270\253\360\336?\204\341\303\202\305\254\227\2771\315\350p&|\305\277x\223\345\360\321^\353\277\360\276\200<\246\223\361?\240\251o \352!\277?S\243\340\210\375\242\330\277\331\323\204\260:\000\360\277\"\'\210\330d\255\325?\n\351[\200\2302\304?\204\341\303\202\305\254\227\277\n\351[\200\2302\304?\n\351[\200\2302\304?x\223\345\360\321^\353\277\340,q\270\276\240\340?S\243\340\210\375\242\330\277\317y\310\"M\257\370\277\252\373\354\214\220x\377?\215\267\004\371\240D\335\277\020\261\276\277\2706\251?\227O\320\270\253\360\336?[\215\201\\\373\032\000\300\244\242\000\205\014\330\356\277\031\350\250 \336\241\364\277\025u\257\310\\l\344\277G\204\312\\\227\345\347\277\007p\246\354\363C\343\277\r\311\222\364w\344\363?\340,q\270\276\240\340?\264U\251\032~\311\366?\232i\335\010\251\205\356?\034\316\233\320\340\014\365?S\243\340\210\375\242\330\277S\243\340\210\375\242\330\277\372\034v \223\\\323?\021<\214L\371\031\344?\301t\277F\344\206\367\277S\243\340\210\375\242\330\277\204\341\303\202\305\254\227\277\204\341\303\202\305\254\227\277\204\341\303\202\305\254\227\277\003o\326f\212\223\374?\n\351[\200\2302\304?}_\313P\3274\354?CK\247\3403\223\347?S\243\340\210\375\242\330\277\370j\235\020\213\033\342\277\031\350\250 \336\241\364\277\340,q\270\276\240\340?\3641z\224\'\311\341?8\177\301\200.\275\346\277f<|\316q\377\360?*z\270\244\305\224\345\277\r\311\222\364w\344\363?S\243\340\210\375\242\330\277JIA!\277q\270\277\204\341\303\202\305\254\227\277\245\3650Qm\277\316\277G\204\312\\\227\345\347\277\225\235\367\250\243\257\355\277\225\235\367\250\243\257\355\277`U\271\230\005\344\351?\245\3650Qm\277\316\277[\375\177\360;\324\310?\225\235\367\250\243\257\355\277k\341\014\341\311\035\312\277\r\311\222\364w\344\363?S\243\340\210\375\242\330\277\372\034v \223\\\323?8\177\301\200.\275\346\277\245\3650Qm\277\316\277G\204\312\\\227\345\347\277f<|\316q\377\360?"
      }
    }
  }
}
node {
  name: "normalize_element/component_1"
  op: "Const"
  device: "/device:CPU:0"
  attr {
    key: "_output_shapes"
    value {
      list {
        shape {
          dim {
            size: 313
          }
        }
      }
    }
  }
  attr {
    key: "dtype"
    value {
      type: DT_DOUBLE
    }
  }
  attr {
    key: "value"
    value {
      tensor {
        dtype: DT_DOUBLE
        tensor_shape {
          dim {
            size: 313
          }
        }
        tensor_content: "d\022\227\013n\276\353\277bbAN\361\216\367?bbAN\361\216\367?bbAN\361\216\367?`\262\353\220t_\323?d\022\227\013n\276\353\277d\022\227\013n\276\353\277d\022\227\013n\276\353\277bbAN\361\216\367?bbAN\361\216\367?\027\304\316\032\301:\367\277`\262\353\220t_\323?d\022\227\013n\276\353\277bbAN\361\216\367?d\022\227\013n\276\353\277`\262\353\220t_\323?d\022\227\013n\276\353\277d\022\227\013n\276\353\277d\022\227\013n\276\353\277d\022\227\013n\276\353\277bbAN\361\216\367?d\022\227\013n\276\353\277d\022\227\013n\276\353\277bbAN\361\216\367?`\262\353\220t_\323?d\022\227\013n\276\353\277d\022\227\013n\276\353\277`\262\353\220t_\323?d\022\227\013n\276\353\277d\022\227\013n\276\353\277d\022\227\013n\276\353\277d\022\227\013n\276\353\277d\022\227\013n\276\353\277bbAN\361\216\367?d\022\227\013n\276\353\277d\022\227\013n\276\353\277bbAN\361\216\367?d\022\227\013n\276\353\277d\022\227\013n\276\353\277d\022\227\013n\276\353\277`\262\353\220t_\323?d\022\227\013n\276\353\277d\022\227\013n\276\353\277`\262\353\220t_\323?bbAN\361\216\367?d\022\227\013n\276\353\277d\022\227\013n\276\353\277d\022\227\013n\276\353\277d\022\227\013n\276\353\277`\262\353\220t_\323?bbAN\361\216\367?d\022\227\013n\276\353\277d\022\227\013n\276\353\277d\022\227\013n\276\353\277bbAN\361\216\367?d\022\227\013n\276\353\277`\262\353\220t_\323?d\022\227\013n\276\353\277bbAN\361\216\367?d\022\227\013n\276\353\277bbAN\361\216\367?d\022\227\013n\276\353\277bbAN\361\216\367?`\262\353\220t_\323?bbAN\361\216\367?d\022\227\013n\276\353\277d\022\227\013n\276\353\277d\022\227\013n\276\353\277d\022\227\013n\276\353\277bbAN\361\216\367?bbAN\361\216\367?bbAN\361\216\367?bbAN\361\216\367?bbAN\361\216\367?d\022\227\013n\276\353\277bbAN\361\216\367?d\022\227\013n\276\353\277d\022\227\013n\276\353\277bbAN\361\216\367?d\022\227\013n\276\353\277`\262\353\220t_\323?bbAN\361\216\367?d\022\227\013n\276\353\277d\022\227\013n\276\353\277`\262\353\220t_\323?`\262\353\220t_\323?`\262\353\220t_\323?d\022\227\013n\276\353\277`\262\353\220t_\323?d\022\227\013n\276\353\277bbAN\361\216\367?d\022\227\013n\276\353\277d\022\227\013n\276\353\277`\262\353\220t_\323?d\022\227\013n\276\353\277`\262\353\220t_\323?bbAN\361\216\367?bbAN\361\216\367?`\262\353\220t_\323?d\022\227\013n\276\353\277d\022\227\013n\276\353\277d\022\227\013n\276\353\277d\022\227\013n\276\353\277bbAN\361\216\367?d\022\227\013n\276\353\277d\022\227\013n\276\353\277`\262\353\220t_\323?d\022\227\013n\276\353\277d\022\227\013n\276\353\277`\262\353\220t_\323?bbAN\361\216\367?d\022\227\013n\276\353\277`\262\353\220t_\323?bbAN\361\216\367?`\262\353\220t_\323?bbAN\361\216\367?bbAN\361\216\367?d\022\227\013n\276\353\277d\022\227\013n\276\353\277d\022\227\013n\276\353\277d\022\227\013n\276\353\277d\022\227\013n\276\353\277bbAN\361\216\367?d\022\227\013n\276\353\277d\022\227\013n\276\353\277`\262\353\220t_\323?`\262\353\220t_\323?`\262\353\220t_\323?bbAN\361\216\367?d\022\227\013n\276\353\277d\022\227\013n\276\353\277\027\304\316\032\301:\367\277bbAN\361\216\367?d\022\227\013n\276\353\277bbAN\361\216\367?d\022\227\013n\276\353\277d\022\227\013n\276\353\277d\022\227\013n\276\353\277d\022\227\013n\276\353\277bbAN\361\216\367?d\022\227\013n\276\353\277bbAN\361\216\367?bbAN\361\216\367?d\022\227\013n\276\353\277`\262\353\220t_\323?bbAN\361\216\367?d\022\227\013n\276\353\277d\022\227\013n\276\353\277d\022\227\013n\276\353\277d\022\227\013n\276\353\277d\022\227\013n\276\353\277bbAN\361\216\367?`\262\353\220t_\323?`\262\353\220t_\323?d\022\227\013n\276\353\277`\262\353\220t_\323?d\022\227\013n\276\353\277bbAN\361\216\367?bbAN\361\216\367?d\022\227\013n\276\353\277d\022\227\013n\276\353\277d\022\227\013n\276\353\277`\262\353\220t_\323?d\022\227\013n\276\353\277d\022\227\013n\276\353\277bbAN\361\216\367?d\022\227\013n\276\353\277d\022\227\013n\276\353\277d\022\227\013n\276\353\277d\022\227\013n\276\353\277`\262\353\220t_\323?`\262\353\220t_\323?d\022\227\013n\276\353\277d\022\227\013n\276\353\277bbAN\361\216\367?d\022\227\013n\276\353\277d\022\227\013n\276\353\277bbAN\361\216\367?d\022\227\013n\276\353\277bbAN\361\216\367?`\262\353\220t_\323?bbAN\361\216\367?bbAN\361\216\367?d\022\227\013n\276\353\277d\022\227\013n\276\353\277d\022\227\013n\276\353\277d\022\227\013n\276\353\277`\262\353\220t_\323?d\022\227\013n\276\353\277d\022\227\013n\276\353\277`\262\353\220t_\323?d\022\227\013n\276\353\277d\022\227\013n\276\353\277d\022\227\013n\276\353\277d\022\227\013n\276\353\277d\022\227\013n\276\353\277`\262\353\220t_\323?bbAN\361\216\367?bbAN\361\216\367?bbAN\361\216\367?bbAN\361\216\367?bbAN\361\216\367?bbAN\361\216\367?bbAN\361\216\367?d\022\227\013n\276\353\277`\262\353\220t_\323?`\262\353\220t_\323?d\022\227\013n\276\353\277d\022\227\013n\276\353\277bbAN\361\216\367?d\022\227\013n\276\353\277d\022\227\013n\276\353\277bbAN\361\216\367?bbAN\361\216\367?bbAN\361\216\367?bbAN\361\216\367?`\262\353\220t_\323?`\262\353\220t_\323?bbAN\361\216\367?d\022\227\013n\276\353\277d\022\227\013n\276\353\277\027\304\316\032\301:\367\277d\022\227\013n\276\353\277d\022\227\013n\276\353\277d\022\227\013n\276\353\277d\022\227\013n\276\353\277d\022\227\013n\276\353\277d\022\227\013n\276\353\277bbAN\361\216\367?`\262\353\220t_\323?bbAN\361\216\367?`\262\353\220t_\323?d\022\227\013n\276\353\277d\022\227\013n\276\353\277d\022\227\013n\276\353\277d\022\227\013n\276\353\277d\022\227\013n\276\353\277bbAN\361\216\367?d\022\227\013n\276\353\277bbAN\361\216\367?d\022\227\013n\276\353\277d\022\227\013n\276\353\277d\022\227\013n\276\353\277bbAN\361\216\367?d\022\227\013n\276\353\27749!\303\263\016\322\277d\022\227\013n\276\353\277bbAN\361\216\367?d\022\227\013n\276\353\277`\262\353\220t_\323?d\022\227\013n\276\353\277`\262\353\220t_\323?d\022\227\013n\276\353\277d\022\227\013n\276\353\277`\262\353\220t_\323?`\262\353\220t_\323?`\262\353\220t_\323?`\262\353\220t_\323?bbAN\361\216\367?d\022\227\013n\276\353\277`\262\353\220t_\323?bbAN\361\216\367?`\262\353\220t_\323?bbAN\361\216\367?`\262\353\220t_\323?bbAN\361\216\367?bbAN\361\216\367?`\262\353\220t_\323?`\262\353\220t_\323?`\262\353\220t_\323?`\262\353\220t_\323?`\262\353\220t_\323?d\022\227\013n\276\353\277d\022\227\013n\276\353\277d\022\227\013n\276\353\277d\022\227\013n\276\353\277bbAN\361\216\367?d\022\227\013n\276\353\277bbAN\361\216\367?`\262\353\220t_\323?`\262\353\220t_\323?d\022\227\013n\276\353\277bbAN\361\216\367?d\022\227\013n\276\353\277d\022\227\013n\276\353\277bbAN\361\216\367?`\262\353\220t_\323?bbAN\361\216\367?d\022\227\013n\276\353\277`\262\353\220t_\323?d\022\227\013n\276\353\277d\022\227\013n\276\353\277bbAN\361\216\367?d\022\227\013n\276\353\277`\262\353\220t_\323?d\022\227\013n\276\353\277d\022\227\013n\276\353\277d\022\227\013n\276\353\277`\262\353\220t_\323?bbAN\361\216\367?bbAN\361\216\367?d\022\227\013n\276\353\277d\022\227\013n\276\353\277d\022\227\013n\276\353\277`\262\353\220t_\323?d\022\227\013n\276\353\277`\262\353\220t_\323?`\262\353\220t_\323?`\262\353\220t_\323?`\262\353\220t_\323?d\022\227\013n\276\353\277bbAN\361\216\367?d\022\227\013n\276\353\277"
      }
    }
  }
}
node {
  name: "normalize_element/component_2"
  op: "Const"
  device: "/device:CPU:0"
  attr {
    key: "_output_shapes"
    value {
      list {
        shape {
          dim {
            size: 313
          }
        }
      }
    }
  }
  attr {
    key: "dtype"
    value {
      type: DT_DOUBLE
    }
  }
  attr {
    key: "value"
    value {
      tensor {
        dtype: DT_DOUBLE
        tensor_shape {
          dim {
            size: 313
          }
        }
        tensor_content: "\220\016\027\n\215P\355\277q\020\000\'n\235\001@\226\267\270\265\243q\002@\0253\261\002\356\320\365?\201x\265g\264\347\246?/\333w\305f\255\332\277\311/\370\0305\253\343\277K\317\325F\270l\357\277q\020\000\'n\235\001@\303\360\261\030\005L\374?\276\010\211\376\234\340\362\277v3-\355\270\204\232?\220\016\027\n\215P\355\277\344\005^\300\303R\367?\245\\\365>\275\345\336\277|\016GU\271m\320\277+\212\236\235\211\247\340\277/\333w\305f\255\332\277^\314\332S\013\374\346\277\315\200\321@\022\261\335\277\201\226\316\307\027\200\362?\324MX\315a4\353\277k\261\240\240\\\205\361\277\357#\276t\360\333\376?\201x\265g\264\347\246?^\314\332S\013\374\346\277\206\005\240\311\267\235\355\277\236\223;\257\324\200\340?g\325Q\224\340\256\346\277\220\016\027\n\215P\355\277\220\016\027\n\215P\355\277\234\336\363\342\206\003\360\277\206\005\240\311\267\235\355\277\320\336\206\313\301\026\360?g\325Q\224\340\256\346\277\210\314\005b\334\235\360\277AQ\324\352\201\212\360?{\347?\025\213\024\346\277^\314\332S\013\374\346\277\350_FN\014\232\352\277\032\264\240\320dq\323\277\031\215\231\2206\030\351\277\265\377\021\276\307-\363\277\236\223;\257\324\200\340?\320\336\206\313\301\026\360?\210\314\005b\334\235\360\277k\261\240\240\\\205\361\277K\317\325F\270l\357\277\350_FN\014\232\352\277\2215\036J\273\251\327\277\357#\276t\360\333\376?\206\005\240\311\267\235\355\277\220\016\027\n\215P\355\277\346,e\000\362\253\361\277\344\005^\300\303R\367?\206\005\240\311\267\235\355\277\236\223;\257\324\200\340?/\333w\305f\255\332\277\357#\276t\360\333\376?k\261\240\240\\\205\361\277\357#\276t\360\333\376?+\212\236\235\211\247\340\277\344\005^\300\303R\367?OK\203\253*\352\342?<9\225*\200\204\343?K\317\325F\270l\357\277g\325Q\224\340\256\346\277\350_FN\014\232\352\277\210\314\005b\334\235\360\277\357#\276t\360\333\376?`\201\" Yy\367?\201\226\316\307\027\200\362?AQ\324\352\201\212\360?`\201\" Yy\367?C\215\304\236\007\272\362\277q\020\000\'n\235\001@A\306^\006\343\271\357\277{\347?\025\213\024\346\2777H]\252\254\327\360?\031\215\231\2206\030\351\277\236\223;\257\324\200\340?\201\226\316\307\027\200\362?\206\005\240\311\267\235\355\277\206\005\240\311\267\235\355\277&\353\266\365O\357\321?\234l4o\246\'\326?\236\223;\257\324\200\340?/\333w\305f\255\332\277&\353\266\365O\357\321?+\212\236\235\211\247\340\277\364\027\030T\271\177\003@\324MX\315a4\353\277\013\212\333i\"w\355\277\036\t&o\010\025\242?\rQA\002Gw\360\277v3-\355\270\204\232?\306\325\017\213\354c\360?<9\225*\200\204\343?\236\223;\257\324\200\340?\324MX\315a4\353\277K\317\325F\270l\357\277+\212\236\235\211\247\340\277\031\215\231\2206\030\351\277\344\005^\300\303R\367?q\336\310\324\265a\346\277\372\\K[_)\342\277&\353\266\365O\357\321?@\261u\222\213\343\347\277k\261\240\240\\\205\361\277\271n\343\277gK\336\277\201\226\316\307\027\200\362?\2215\036J\273\251\327\277&\353\266\365O\357\321?\226\267\270\265\243q\002@&\353\266\365O\357\321?\344\005^\300\303R\367?`\201\" Yy\367?\206\005\240\311\267\235\355\277+\212\236\235\211\247\340\277q\336\310\324\265a\346\277\220\016\027\n\215P\355\2775\223\025\336^Z\340\277\344\005^\300\303R\367?K\317\325F\270l\357\277\372\\K[_)\342\277&\353\266\365O\357\321?|\016GU\271m\320\277OK\203\253*\352\342?\263\330\n~\231\324\370?\rQA\002Gw\360\277C\215\304\236\007\272\362\277\3605\334@\307^\361\277\201\226\316\307\027\200\362?\234\336\363\342\206\003\360\277\357#\276t\360\333\376?+\212\236\235\211\247\340\277\361S\324\032\212v\342\277\234\336\363\342\206\003\360\277\206\005\240\311\267\235\355\277\344\005^\300\303R\367?A\306^\006\343\271\357\277\261U\372\003\004\223\003@\201\226\316\307\027\200\362?\210\314\005b\334\235\360\277\234l4o\246\'\326?\320\336\206\313\301\026\360?\210\314\005b\334\235\360\277A\306^\006\343\271\357\277+\212\236\235\211\247\340\277q\336\310\324\265a\346\277\220\016\027\n\215P\355\277\320\336\206\313\301\026\360?\236\223;\257\324\200\340?&\353\266\365O\357\321?\324MX\315a4\353\277OK\203\253*\352\342?\220\016\027\n\215P\355\277\320\336\206\313\301\026\360?\320\336\206\313\301\026\360?^\314\332S\013\374\346\277\210\314\005b\334\235\360\277\031\215\231\2206\030\351\277\366\362\273\302\303.\301\277q\336\310\324\265a\346\277|\374(\211\342\352\355\277\344\005^\300\303R\367?K\317\325F\270l\357\277k\261\240\240\\\205\361\277\206\005\240\311\267\235\355\277\220\016\027\n\215P\355\277\260~\"\360P\215\325?\260~\"\360P\215\325?\361S\324\032\212v\342\277\2215\036J\273\251\327\277\201\226\316\307\027\200\362?\220\016\027\n\215P\355\277A\306^\006\343\271\357\277<9\225*\200\204\343?\362h\275\216\341L\352\277\344\005^\300\303R\367?&\353\266\365O\357\321?`\201\" Yy\367?AQ\324\352\201\212\360?A\306^\006\343\271\357\277\372\\K[_)\342\277^\314\332S\013\374\346\277q\336\310\324\265a\346\277\236\223;\257\324\200\340?\255)|\313\014i\354\277\362h\275\216\341L\352\277\234l4o\246\'\326?\206\005\240\311\267\235\355\277\234\336\363\342\206\003\360\277K\317\325F\270l\357\277\220\016\027\n\215P\355\277\334#\356\277\034\371\361\277&\353\266\365O\357\321?\357#\276t\360\333\376?\201\226\316\307\027\200\362?\306\325\017\213\354c\360?\201\226\316\307\027\200\362?\201\226\316\307\027\200\362?\344\005^\300\303R\367?\357#\276t\360\333\376?\361S\324\032\212v\342\277\201x\265g\264\347\246?&\353\266\365O\357\321?\rQA\002Gw\360\277#\226\020\321\013\313\350\277\344\005^\300\303R\367?\2215\036J\273\251\327\277/\333w\305f\255\332\277\357#\276t\360\333\376?`\201\" Yy\367?\344\005^\300\303R\367?\201\226\316\307\027\200\362?|\016GU\271m\320\277\201x\265g\264\347\246?\306\325\017\213\354c\360?\027Z\270B\034*\360\277\362h\275\216\341L\352\277\276\010\211\376\234\340\362\277\210\314\005b\334\235\360\277@\261u\222\213\343\347\2776\250\376Q\2660\350\277g\325Q\224\340\256\346\277+\212\236\235\211\247\340\277\350_FN\014\232\352\277\303\360\261\030\005L\374?\236\223;\257\324\200\340?`\201\" Yy\367?&\353\266\365O\357\321?\206\005\240\311\267\235\355\277\017\204\"Pae\351\277\372\\K[_)\342\277\310\021\000?r\223\362\277+\212\236\235\211\247\340\277\344\005^\300\303R\367?q\336\310\324\265a\346\277\357#\276t\360\333\376?\362h\275\216\341L\352\277q\336\310\324\265a\346\277{\347?\025\213\024\346\277\201\226\316\307\027\200\362?g\325Q\224\340\256\346\277\3238oY\n^\343\277g\325Q\224\340\256\346\277`\201\" Yy\367?A\306^\006\343\271\357\277\234l4o\246\'\326?+\212\236\235\211\247\340\277v3-\355\270\204\232?K\317\325F\270l\357\277/\333w\305f\255\332\277\234l4o\246\'\326?\315\200\321@\022\261\335\277\274\321\332\263\033\324\312\277\260~\"\360P\215\325?`\201\" Yy\367?K\317\325F\270l\357\277\260~\"\360P\215\325?\261U\372\003\004\223\003@\274\321\332\263\033\324\312\277\320\336\206\313\301\026\360?\315\200\321@\022\261\335\277\201\226\316\307\027\200\362?\306\325\017\213\354c\360?\236\223;\257\324\200\340?\236\223;\257\324\200\340?\236\223;\257\324\200\340?\234l4o\246\'\326?\260~\"\360P\215\325?\2215\036J\273\251\327\277\206\005\240\311\267\235\355\277\rQA\002Gw\360\277/\333w\305f\255\332\277\357#\276t\360\333\376?\350_FN\014\232\352\277\306\325\017\213\354c\360?\236\223;\257\324\200\340?\234l4o\246\'\326?\206\005\240\311\267\235\355\277\320\336\206\313\301\026\360?\206\005\240\311\267\235\355\277K\317\325F\270l\357\277\344\005^\300\303R\367?}#0\311\020D\330\277\306\325\017\213\354c\360?g\325Q\224\340\256\346\277\201x\265g\264\347\246?+\212\236\235\211\247\340\277+\212\236\235\211\247\340\277\201\226\316\307\027\200\362?\206\005\240\311\267\235\355\277n\211\"\260q=\315\277\324MX\315a4\353\277\220\016\027\n\215P\355\277\234\336\363\342\206\003\360\277OK\203\253*\352\342?\344\005^\300\303R\367?\263\330\n~\231\324\370?\206\005\240\311\267\235\355\277\324MX\315a4\353\277t\272\027\34118\361\277\234l4o\246\'\326?^\314\332S\013\374\346\277&\353\266\365O\357\321?\236\223;\257\324\200\340?\236\223;\257\324\200\340?\032\264\240\320dq\323\277+\212\236\235\211\247\340\277\344\005^\300\303R\367?\220\016\027\n\215P\355\277"
      }
    }
  }
}
node {
  name: "normalize_element/component_3"
  op: "Const"
  device: "/device:CPU:0"
  attr {
    key: "_output_shapes"
    value {
      list {
        shape {
          dim {
            size: 313
          }
        }
      }
    }
  }
  attr {
    key: "dtype"
    value {
      type: DT_DOUBLE
    }
  }
  attr {
    key: "value"
    value {
      tensor {
        dtype: DT_DOUBLE
        tensor_shape {
          dim {
            size: 313
          }
        }
        tensor_content: "T\270\256\257\270\001\345\277\223\034\333\251.\270\005@\304\216\021\347\331.\007@\367\321]U\014^\367?\020=1\340H\372\337\277gg\214\313Q\235\327\277\265\001\240i\006X\254\277\354\353\332.\341\n\357\277)\347\261\344\360\240\003@\314<\260\337\207\214\373?\300\253\261\303\357\317\307\277{#\317m\265\200\316\277]\tk\372\237+\344\277U\231!&7\231\227?\235g\300\230R(\313\277\327\"3\006\263\337\323?\211\253}\366\356D\324\277gg\214\313Q\235\327\277P\360\n\211\216\215\273\277\354\353\332.\341\n\357\277\233\370q\201*\002\356?\345\323\364\001\2421\361\277\354\353\332.\341\n\357\277\314<\260\337\207\214\373?\020=1\340H\372\337\277n\253\343\217n\177\342\2771t\275\204\033Z\350\277}\336\r\016\025\255\303?\300\253\261\303\357\317\307\277\343\232\036\344\371\340\357\277\006\337\017\017\227\210\354\277XZ\332\021\307r\362\277XZ\332\021\307r\362\277\244I.\314\021,\355?D#\233\240\264\365\332\277\006\337\017\017\227\210\354\277\2701\342\005S\030\361?!\337\251u\027N\336\277\300\253\261\303\357\317\307\277!\337\251u\027N\336\277\330/\230\214}\'\350?D#\233\240\264\365\332\277\250\234\316\366N\014\367\277U\231!&7\231\227?\233\370q\201*\002\356?5\026\351\346)\313\365\277\354\353\332.\341\n\357\277\006\337\017\017\227\210\354\2771t\275\204\033Z\350\277oV_\205\333\350\335?\"g\013\313\220/\363?1t\275\204\033Z\350\277\355$\261L\211[\360\2775\026\351\346)\313\365\277\035\270z\342\267v\341?Kg\362d\321\327\345\277U\231!&7\231\227?D#\233\240\264\365\332\277:\211*z\277\364\001@O\t\036\307\337H\363\277:\211*z\277\364\001@1t\275\204\033Z\350\277\215\2344\220\316F\365?\221\232P\260x\220\332?}\336\r\016\025\255\303?\375\215S\304\257^\355\2773\201\"\013\346\241\334\277gg\214\313Q\235\327\277\006\337\017\017\227\210\354\277\"g\013\313\220/\363?\255\232\352\026\371U\354?\"g\013\313\220/\363?\362\"\315l3\245\345?+\270\307\025xY\362?\355$\261L\211[\360\277)\347\261\344\360\240\003@$tpQ[w\367\277\235g\300\230R(\313\277\362\"\315l3\245\345?\020=1\340H\372\337\277D#\233\240\264\365\332\277\2701\342\005S\030\361?\0170\314Y~\262\353\277Kg\362d\321\327\345\277P\360\n\211\216\215\273\2778V+\270\332]\312?Kg\362d\321\327\345\277\177M\\%=\323\340\277P\360\n\211\216\215\273\277\027\201\210\244e\334\352\277y)\246\311x:\010@\006\337\017\017\227\210\354\277]\tk\372\237+\344\277gg\214\313Q\235\327\277\355$\261L\211[\360\277{#\317m\265\200\316\277tL\035\002R\225\002@gg\214\313Q\235\327\277\027\201\210\244e\334\352\277)#\001:40\351\277\271>G\214\035`\365\277D#\233\240\264\365\332\277D#\233\240\264\365\332\277a\007\207\032Ju\371?\343\357\242\356\214w\304\277\177M\\%=\323\340\277U\231!&7\231\227?1t\275\204\033Z\350\277O\t\036\307\337H\363\277:\305y\317\002\204\347\277\307\215\037\367\256\323\351?U\231!&7\231\227?P\360\n\211\216\215\273\277\304\216\021\347\331.\007@}\336\r\016\025\255\303?\215\2344\220\316F\365?\225\355\360\332\265p\364?\354\353\332.\341\n\357\277!\337\251u\027N\336\277]\tk\372\237+\344\277]\tk\372\237+\344\277]\tk\372\237+\344\277\240\247\002j\003\273\377?\271>G\214\035`\365\277\177M\\%=\323\340\277gg\214\313Q\235\327\277\341\200T\327dQ\347?{#\317m\265\200\316\2776r\331\244\305\243\375?\355$\261L\211[\360\277\355$\261L\211[\360\277}\336\r\016\025\255\303?\"g\013\313\220/\363?`\253\226\\\256\234\361\277\240\247\002j\003\273\377?D#\233\240\264\365\332\277\235g\300\230R(\313\277`\253\226\\\256\234\361\277\211\253}\366\356D\324\277\2701\342\005S\030\361?1t\275\204\033Z\350\277/\304:\254\027F\t@\"g\013\313\220/\363?\355$\261L\211[\360\277P\360\n\211\216\215\273\277\233\370q\201*\002\356?\006\337\017\017\227\210\354\277$tpQ[w\367\277U\305\0236\203I\331\277}\336\r\016\025\255\303?:\305y\317\002\204\347\277\362\"\315l3\245\345?P\360\n\211\216\215\273\277\020=1\340H\372\337\2771t\275\204\033Z\350\277}\336\r\016\025\255\303?\365<\227y\3104\356\277\265\353\246a\340\177\353?\233\370q\201*\002\356?\300\253\261\303\357\317\307\277\355$\261L\211[\360\277D#\233\240\264\365\332\277}\336\r\016\025\255\303?:\305y\317\002\204\347\277\375\215S\304\257^\355\277\2701\342\005S\030\361?XZ\332\021\307r\362\277\354\353\332.\341\n\357\277Kg\362d\321\327\345\277w\374\237\332U\251\341\277a\007\207\032Ju\371?}\336\r\016\025\255\303?{#\317m\265\200\316\277\211\253}\366\356D\324\277\"g\013\313\220/\363?\355$\261L\211[\360\277\006\337\017\017\227\210\354\277}\336\r\016\025\255\303?\233M\366\213\275\230\322\277\314<\260\337\207\214\373?U\231!&7\231\227?\225\355\360\332\265p\364?\233\370q\201*\002\356?$tpQ[w\367\277\177M\\%=\323\340\277\300\253\261\303\357\317\307\277\025\022:\215=\266\315?P\360\n\211\216\215\273\277w\374\237\332U\251\341\277\254\357n!\214\354\320\277gg\214\313Q\235\327\277>g\2451\021\365\364\277\0170\314Y~\262\353\277\354\353\332.\341\n\357\277XZ\332\021\307r\362\2775\026\351\346)\313\365\277}\336\r\016\025\255\303?6r\331\244\305\243\375?\"g\013\313\220/\363?\"g\013\313\220/\363?\"g\013\313\220/\363?\"g\013\313\220/\363?a\007\207\032Ju\371?\"g\013\313\220/\363?{#\317m\265\200\316\277eZ\'E\207U\343\277U\231!&7\231\227?\355$\261L\211[\360\277{#\317m\265\200\316\277\2701\342\005S\030\361?U\231!&7\231\227?\020=1\340H\372\337\2776r\331\244\305\243\375?\000#\032\240\363\207\366?\2701\342\005S\030\361?\"g\013\313\220/\363?\221\232P\260x\220\332?\020=1\340H\372\337\277\"g\013\313\220/\363?:\305y\317\002\204\347\2771t\275\204\033Z\350\277gg\214\313Q\235\327\277\355$\261L\211[\360\2771t\275\204\033Z\350\277{#\317m\265\200\316\277)#\001:40\351\277w\374\237\332U\251\341\277\027\201\210\244e\334\352\277\240\247\002j\003\273\377?P\360\n\211\216\215\273\277\247\217ip\204\304\362?P\360\n\211\216\215\273\2775\026\351\346)\313\365\277]\tk\372\237+\344\277\177M\\%=\323\340\277\375\215S\304\257^\355\277\027\201\210\244e\334\352\277\240\247\002j\003\273\377?8V+\270\332]\312?Y\266\312\317bK\372?\006\337\017\017\227\210\354\2778V+\270\332]\312?D#\233\240\264\365\332\277\"g\013\313\220/\363?T\270\256\257\270\001\345\277\200$\312*\366\354\235\277\300\253\261\303\357\317\307\277\032\026O\200\251\005\364?\0170\314Y~\262\353\277P\360\n\211\216\215\273\277gg\214\313Q\235\327\277{#\317m\265\200\316\277\365<\227y\3104\356\277gg\214\313Q\235\327\277gg\214\313Q\235\327\277\300\253\261\303\357\317\307\277\350\304\253\233\2013\322?}\336\r\016\025\255\303?\212V\371\353[\256\357?\354\353\332.\341\n\357\277U\231!&7\231\227?/\304:\254\027F\t@\350\304\253\233\2013\322?\373s\211\267\032\317\344?\221\232P\260x\220\332?\017\364|\004;#\006@\221\232P\260x\220\332?\343\357\242\356\214w\304\277P\360\n\211\216\215\273\277\027\201\210\244e\334\352\277gg\214\313Q\235\327\277U\231!&7\231\227?\211\253}\366\356D\324\277D#\233\240\264\365\332\277i\374R\247\225\306\360\277gg\214\313Q\235\327\2776r\331\244\305\243\375?1t\275\204\033Z\350\277\"g\013\313\220/\363?P\360\n\211\216\215\273\277P\360\n\211\216\215\273\277\033#\264\006tM\370\277\233\370q\201*\002\356?\354\353\332.\341\n\357\277\365<\227y\3104\356\277\"g\013\313\220/\363?\313U\303\035\331G\263?\"g\013\313\220/\363?D#\233\240\264\365\332\277D#\233\240\264\365\332\277\027\201\210\244e\334\352\277Kg\362d\321\327\345\277\233\370q\201*\002\356?D#\233\240\264\365\332\277\300\253\261\303\357\317\307\277)#\001:40\351\277gg\214\313Q\235\327\277\0170\314Y~\262\353\277}\336\r\016\025\255\303?6r\331\244\305\243\375?\"g\013\313\220/\363?\354\353\332.\341\n\357\277\006\337\017\017\227\210\354\277XZ\332\021\307r\362\277P\360\n\211\216\215\273\277\211\253}\366\356D\324\277{#\317m\265\200\316\277U\231!&7\231\227?}\336\r\016\025\255\303?\035\270z\342\267v\341?\211\253}\366\356D\324\277\367\321]U\014^\367?\365<\227y\3104\356\277"
      }
    }
  }
}
node {
  name: "normalize_element/component_4"
  op: "Const"
  device: "/device:CPU:0"
  attr {
    key: "_output_shapes"
    value {
      list {
        shape {
          dim {
            size: 313
          }
        }
      }
    }
  }
  attr {
    key: "dtype"
    value {
      type: DT_INT64
    }
  }
  attr {
    key: "value"
    value {
      tensor {
        dtype: DT_INT64
        tensor_shape {
          dim {
            size: 313
          }
        }
        tensor_content: "L\000\000\000\000\000\000\000H\000\000\000\000\000\000\000F\000\000\000\000\000\000\000F\000\000\000\000\000\000\000N\000\000\000\000\000\000\000O\000\000\000\000\000\000\000L\000\000\000\000\000\000\000R\000\000\000\000\000\000\000I\000\000\000\000\000\000\000F\000\000\000\000\000\000\000H\000\000\000\000\000\000\000F\000\000\000\000\000\000\000H\000\000\000\000\000\000\000Q\000\000\000\000\000\000\000R\000\000\000\000\000\000\000Q\000\000\000\000\000\000\000R\000\000\000\000\000\000\000R\000\000\000\000\000\000\000Q\000\000\000\000\000\000\000P\000\000\000\000\000\000\000N\000\000\000\000\000\000\000Q\000\000\000\000\000\000\000J\000\000\000\000\000\000\000G\000\000\000\000\000\000\000F\000\000\000\000\000\000\000R\000\000\000\000\000\000\000M\000\000\000\000\000\000\000L\000\000\000\000\000\000\000J\000\000\000\000\000\000\000N\000\000\000\000\000\000\000P\000\000\000\000\000\000\000P\000\000\000\000\000\000\000G\000\000\000\000\000\000\000N\000\000\000\000\000\000\000L\000\000\000\000\000\000\000M\000\000\000\000\000\000\000N\000\000\000\000\000\000\000G\000\000\000\000\000\000\000K\000\000\000\000\000\000\000L\000\000\000\000\000\000\000N\000\000\000\000\000\000\000R\000\000\000\000\000\000\000I\000\000\000\000\000\000\000K\000\000\000\000\000\000\000J\000\000\000\000\000\000\000L\000\000\000\000\000\000\000J\000\000\000\000\000\000\000G\000\000\000\000\000\000\000Q\000\000\000\000\000\000\000I\000\000\000\000\000\000\000I\000\000\000\000\000\000\000K\000\000\000\000\000\000\000Q\000\000\000\000\000\000\000N\000\000\000\000\000\000\000O\000\000\000\000\000\000\000M\000\000\000\000\000\000\000K\000\000\000\000\000\000\000M\000\000\000\000\000\000\000M\000\000\000\000\000\000\000Q\000\000\000\000\000\000\000H\000\000\000\000\000\000\000J\000\000\000\000\000\000\000H\000\000\000\000\000\000\000N\000\000\000\000\000\000\000M\000\000\000\000\000\000\000O\000\000\000\000\000\000\000H\000\000\000\000\000\000\000F\000\000\000\000\000\000\000N\000\000\000\000\000\000\000I\000\000\000\000\000\000\000O\000\000\000\000\000\000\000J\000\000\000\000\000\000\000O\000\000\000\000\000\000\000K\000\000\000\000\000\000\000J\000\000\000\000\000\000\000F\000\000\000\000\000\000\000N\000\000\000\000\000\000\000M\000\000\000\000\000\000\000H\000\000\000\000\000\000\000R\000\000\000\000\000\000\000G\000\000\000\000\000\000\000M\000\000\000\000\000\000\000L\000\000\000\000\000\000\000M\000\000\000\000\000\000\000L\000\000\000\000\000\000\000R\000\000\000\000\000\000\000L\000\000\000\000\000\000\000Q\000\000\000\000\000\000\000N\000\000\000\000\000\000\000I\000\000\000\000\000\000\000F\000\000\000\000\000\000\000O\000\000\000\000\000\000\000H\000\000\000\000\000\000\000F\000\000\000\000\000\000\000P\000\000\000\000\000\000\000J\000\000\000\000\000\000\000F\000\000\000\000\000\000\000O\000\000\000\000\000\000\000K\000\000\000\000\000\000\000Q\000\000\000\000\000\000\000L\000\000\000\000\000\000\000O\000\000\000\000\000\000\000R\000\000\000\000\000\000\000H\000\000\000\000\000\000\000K\000\000\000\000\000\000\000Q\000\000\000\000\000\000\000I\000\000\000\000\000\000\000J\000\000\000\000\000\000\000M\000\000\000\000\000\000\000Q\000\000\000\000\000\000\000O\000\000\000\000\000\000\000P\000\000\000\000\000\000\000M\000\000\000\000\000\000\000I\000\000\000\000\000\000\000O\000\000\000\000\000\000\000O\000\000\000\000\000\000\000H\000\000\000\000\000\000\000M\000\000\000\000\000\000\000R\000\000\000\000\000\000\000O\000\000\000\000\000\000\000O\000\000\000\000\000\000\000Q\000\000\000\000\000\000\000I\000\000\000\000\000\000\000K\000\000\000\000\000\000\000R\000\000\000\000\000\000\000P\000\000\000\000\000\000\000P\000\000\000\000\000\000\000L\000\000\000\000\000\000\000I\000\000\000\000\000\000\000O\000\000\000\000\000\000\000G\000\000\000\000\000\000\000M\000\000\000\000\000\000\000H\000\000\000\000\000\000\000P\000\000\000\000\000\000\000M\000\000\000\000\000\000\000P\000\000\000\000\000\000\000K\000\000\000\000\000\000\000Q\000\000\000\000\000\000\000H\000\000\000\000\000\000\000I\000\000\000\000\000\000\000J\000\000\000\000\000\000\000I\000\000\000\000\000\000\000I\000\000\000\000\000\000\000O\000\000\000\000\000\000\000I\000\000\000\000\000\000\000F\000\000\000\000\000\000\000L\000\000\000\000\000\000\000P\000\000\000\000\000\000\000M\000\000\000\000\000\000\000I\000\000\000\000\000\000\000P\000\000\000\000\000\000\000L\000\000\000\000\000\000\000I\000\000\000\000\000\000\000Q\000\000\000\000\000\000\000N\000\000\000\000\000\000\000K\000\000\000\000\000\000\000N\000\000\000\000\000\000\000I\000\000\000\000\000\000\000J\000\000\000\000\000\000\000N\000\000\000\000\000\000\000Q\000\000\000\000\000\000\000R\000\000\000\000\000\000\000R\000\000\000\000\000\000\000H\000\000\000\000\000\000\000H\000\000\000\000\000\000\000I\000\000\000\000\000\000\000N\000\000\000\000\000\000\000J\000\000\000\000\000\000\000P\000\000\000\000\000\000\000J\000\000\000\000\000\000\000N\000\000\000\000\000\000\000Q\000\000\000\000\000\000\000N\000\000\000\000\000\000\000Q\000\000\000\000\000\000\000L\000\000\000\000\000\000\000Q\000\000\000\000\000\000\000K\000\000\000\000\000\000\000N\000\000\000\000\000\000\000J\000\000\000\000\000\000\000M\000\000\000\000\000\000\000J\000\000\000\000\000\000\000G\000\000\000\000\000\000\000L\000\000\000\000\000\000\000P\000\000\000\000\000\000\000Q\000\000\000\000\000\000\000N\000\000\000\000\000\000\000F\000\000\000\000\000\000\000J\000\000\000\000\000\000\000L\000\000\000\000\000\000\000I\000\000\000\000\000\000\000L\000\000\000\000\000\000\000H\000\000\000\000\000\000\000O\000\000\000\000\000\000\000P\000\000\000\000\000\000\000L\000\000\000\000\000\000\000J\000\000\000\000\000\000\000N\000\000\000\000\000\000\000G\000\000\000\000\000\000\000K\000\000\000\000\000\000\000H\000\000\000\000\000\000\000G\000\000\000\000\000\000\000I\000\000\000\000\000\000\000G\000\000\000\000\000\000\000F\000\000\000\000\000\000\000N\000\000\000\000\000\000\000L\000\000\000\000\000\000\000G\000\000\000\000\000\000\000P\000\000\000\000\000\000\000G\000\000\000\000\000\000\000L\000\000\000\000\000\000\000N\000\000\000\000\000\000\000N\000\000\000\000\000\000\000H\000\000\000\000\000\000\000I\000\000\000\000\000\000\000K\000\000\000\000\000\000\000I\000\000\000\000\000\000\000L\000\000\000\000\000\000\000N\000\000\000\000\000\000\000I\000\000\000\000\000\000\000G\000\000\000\000\000\000\000P\000\000\000\000\000\000\000I\000\000\000\000\000\000\000P\000\000\000\000\000\000\000I\000\000\000\000\000\000\000K\000\000\000\000\000\000\000Q\000\000\000\000\000\000\000K\000\000\000\000\000\000\000P\000\000\000\000\000\000\000G\000\000\000\000\000\000\000G\000\000\000\000\000\000\000M\000\000\000\000\000\000\000L\000\000\000\000\000\000\000R\000\000\000\000\000\000\000M\000\000\000\000\000\000\000R\000\000\000\000\000\000\000G\000\000\000\000\000\000\000G\000\000\000\000\000\000\000L\000\000\000\000\000\000\000H\000\000\000\000\000\000\000I\000\000\000\000\000\000\000R\000\000\000\000\000\000\000I\000\000\000\000\000\000\000P\000\000\000\000\000\000\000L\000\000\000\000\000\000\000R\000\000\000\000\000\000\000N\000\000\000\000\000\000\000H\000\000\000\000\000\000\000L\000\000\000\000\000\000\000K\000\000\000\000\000\000\000K\000\000\000\000\000\000\000G\000\000\000\000\000\000\000I\000\000\000\000\000\000\000Q\000\000\000\000\000\000\000O\000\000\000\000\000\000\000K\000\000\000\000\000\000\000M\000\000\000\000\000\000\000O\000\000\000\000\000\000\000K\000\000\000\000\000\000\000O\000\000\000\000\000\000\000R\000\000\000\000\000\000\000M\000\000\000\000\000\000\000F\000\000\000\000\000\000\000O\000\000\000\000\000\000\000K\000\000\000\000\000\000\000Q\000\000\000\000\000\000\000F\000\000\000\000\000\000\000L\000\000\000\000\000\000\000M\000\000\000\000\000\000\000J\000\000\000\000\000\000\000K\000\000\000\000\000\000\000O\000\000\000\000\000\000\000N\000\000\000\000\000\000\000R\000\000\000\000\000\000\000F\000\000\000\000\000\000\000Q\000\000\000\000\000\000\000R\000\000\000\000\000\000\000G\000\000\000\000\000\000\000R\000\000\000\000\000\000\000J\000\000\000\000\000\000\000G\000\000\000\000\000\000\000G\000\000\000\000\000\000\000F\000\000\000\000\000\000\000H\000\000\000\000\000\000\000P\000\000\000\000\000\000\000R\000\000\000\000\000\000\000J\000\000\000\000\000\000\000I\000\000\000\000\000\000\000F\000\000\000\000\000\000\000K\000\000\000\000\000\000\000Q\000\000\000\000\000\000\000L\000\000\000\000\000\000\000K\000\000\000\000\000\000\000N\000\000\000\000\000\000\000I\000\000\000\000\000\000\000K\000\000\000\000\000\000\000R\000\000\000\000\000\000\000I\000\000\000\000\000\000\000N\000\000\000\000\000\000\000G\000\000\000\000\000\000\000I\000\000\000\000\000\000\000O\000\000\000\000\000\000\000Q\000\000\000\000\000\000\000O\000\000\000\000\000\000\000Q\000\000\000\000\000\000\000G\000\000\000\000\000\000\000P\000\000\000\000\000\000\000K\000\000\000\000\000\000\000L\000\000\000\000\000\000\000M\000\000\000\000\000\000\000N\000\000\000\000\000\000\000L\000\000\000\000\000\000\000H\000\000\000\000\000\000\000M\000\000\000\000\000\000\000"
      }
    }
  }
}
node {
  name: "normalize_element/component_5"
  op: "Const"
  device: "/device:CPU:0"
  attr {
    key: "_output_shapes"
    value {
      list {
        shape {
          dim {
            size: 313
          }
        }
      }
    }
  }
  attr {
    key: "dtype"
    value {
      type: DT_INT64
    }
  }
  attr {
    key: "value"
    value {
      tensor {
        dtype: DT_INT64
        tensor_shape {
          dim {
            size: 313
          }
        }
        tensor_content: "\001\000\000\000\000\000\000\000\001\000\000\000\000\000\000\000\001\000\000\000\000\000\000\000\001\000\000\000\000\000\000\000\001\000\000\000\000\000\000\000\001\000\000\000\000\000\000\000\002\000\000\000\000\000\000\000\003\000\000\000\000\000\000\000\001\000\000\000\000\000\000\000\001\000\000\000\000\000\000\000\003\000\000\000\000\000\000\000\001\000\000\000\000\000\000\000\001\000\000\000\000\000\000\000\001\000\000\000\000\000\000\000\003\000\000\000\000\000\000\000\003\000\000\000\000\000\000\000\001\000\000\000\000\000\000\000\001\000\000\000\000\000\000\000\003\000\000\000\000\000\000\000\002\000\000\000\000\000\000\000\001\000\000\000\000\000\000\000\001\000\000\000\000\000\000\000\002\000\000\000\000\000\000\000\001\000\000\000\000\000\000\000\001\000\000\000\000\000\000\000\001\000\000\000\000\000\000\000\003\000\000\000\000\000\000\000\001\000\000\000\000\000\000\000\003\000\000\000\000\000\000\000\001\000\000\000\000\000\000\000\001\000\000\000\000\000\000\000\003\000\000\000\000\000\000\000\002\000\000\000\000\000\000\000\001\000\000\000\000\000\000\000\002\000\000\000\000\000\000\000\003\000\000\000\000\000\000\000\001\000\000\000\000\000\000\000\001\000\000\000\000\000\000\000\003\000\000\000\000\000\000\000\002\000\000\000\000\000\000\000\002\000\000\000\000\000\000\000\001\000\000\000\000\000\000\000\002\000\000\000\000\000\000\000\001\000\000\000\000\000\000\000\001\000\000\000\000\000\000\000\001\000\000\000\000\000\000\000\002\000\000\000\000\000\000\000\001\000\000\000\000\000\000\000\003\000\000\000\000\000\000\000\003\000\000\000\000\000\000\000\001\000\000\000\000\000\000\000\003\000\000\000\000\000\000\000\001\000\000\000\000\000\000\000\003\000\000\000\000\000\000\000\001\000\000\000\000\000\000\000\002\000\000\000\000\000\000\000\001\000\000\000\000\000\000\000\001\000\000\000\000\000\000\000\001\000\000\000\000\000\000\000\003\000\000\000\000\000\000\000\001\000\000\000\000\000\000\000\001\000\000\000\000\000\000\000\001\000\000\000\000\000\000\000\001\000\000\000\000\000\000\000\001\000\000\000\000\000\000\000\002\000\000\000\000\000\000\000\002\000\000\000\000\000\000\000\002\000\000\000\000\000\000\000\003\000\000\000\000\000\000\000\001\000\000\000\000\000\000\000\001\000\000\000\000\000\000\000\001\000\000\000\000\000\000\000\001\000\000\000\000\000\000\000\001\000\000\000\000\000\000\000\003\000\000\000\000\000\000\000\001\000\000\000\000\000\000\000\002\000\000\000\000\000\000\000\001\000\000\000\000\000\000\000\001\000\000\000\000\000\000\000\001\000\000\000\000\000\000\000\001\000\000\000\000\000\000\000\001\000\000\000\000\000\000\000\002\000\000\000\000\000\000\000\002\000\000\000\000\000\000\000\001\000\000\000\000\000\000\000\001\000\000\000\000\000\000\000\001\000\000\000\000\000\000\000\001\000\000\000\000\000\000\000\001\000\000\000\000\000\000\000\001\000\000\000\000\000\000\000\001\000\000\000\000\000\000\000\001\000\000\000\000\000\000\000\001\000\000\000\000\000\000\000\001\000\000\000\000\000\000\000\003\000\000\000\000\000\000\000\001\000\000\000\000\000\000\000\001\000\000\000\000\000\000\000\001\000\000\000\000\000\000\000\001\000\000\000\000\000\000\000\002\000\000\000\000\000\000\000\003\000\000\000\000\000\000\000\001\000\000\000\000\000\000\000\001\000\000\000\000\000\000\000\001\000\000\000\000\000\000\000\002\000\000\000\000\000\000\000\001\000\000\000\000\000\000\000\001\000\000\000\000\000\000\000\002\000\000\000\000\000\000\000\002\000\000\000\000\000\000\000\002\000\000\000\000\000\000\000\001\000\000\000\000\000\000\000\001\000\000\000\000\000\000\000\001\000\000\000\000\000\000\000\001\000\000\000\000\000\000\000\001\000\000\000\000\000\000\000\001\000\000\000\000\000\000\000\001\000\000\000\000\000\000\000\003\000\000\000\000\000\000\000\001\000\000\000\000\000\000\000\001\000\000\000\000\000\000\000\001\000\000\000\000\000\000\000\002\000\000\000\000\000\000\000\001\000\000\000\000\000\000\000\003\000\000\000\000\000\000\000\001\000\000\000\000\000\000\000\001\000\000\000\000\000\000\000\003\000\000\000\000\000\000\000\001\000\000\000\000\000\000\000\001\000\000\000\000\000\000\000\003\000\000\000\000\000\000\000\003\000\000\000\000\000\000\000\003\000\000\000\000\000\000\000\001\000\000\000\000\000\000\000\002\000\000\000\000\000\000\000\001\000\000\000\000\000\000\000\001\000\000\000\000\000\000\000\003\000\000\000\000\000\000\000\003\000\000\000\000\000\000\000\003\000\000\000\000\000\000\000\001\000\000\000\000\000\000\000\001\000\000\000\000\000\000\000\001\000\000\000\000\000\000\000\001\000\000\000\000\000\000\000\003\000\000\000\000\000\000\000\001\000\000\000\000\000\000\000\001\000\000\000\000\000\000\000\003\000\000\000\000\000\000\000\002\000\000\000\000\000\000\000\001\000\000\000\000\000\000\000\002\000\000\000\000\000\000\000\002\000\000\000\000\000\000\000\001\000\000\000\000\000\000\000\001\000\000\000\000\000\000\000\001\000\000\000\000\000\000\000\001\000\000\000\000\000\000\000\001\000\000\000\000\000\000\000\003\000\000\000\000\000\000\000\001\000\000\000\000\000\000\000\001\000\000\000\000\000\000\000\003\000\000\000\000\000\000\000\003\000\000\000\000\000\000\000\001\000\000\000\000\000\000\000\001\000\000\000\000\000\000\000\002\000\000\000\000\000\000\000\002\000\000\000\000\000\000\000\001\000\000\000\000\000\000\000\003\000\000\000\000\000\000\000\003\000\000\000\000\000\000\000\002\000\000\000\000\000\000\000\002\000\000\000\000\000\000\000\001\000\000\000\000\000\000\000\001\000\000\000\000\000\000\000\003\000\000\000\000\000\000\000\001\000\000\000\000\000\000\000\001\000\000\000\000\000\000\000\001\000\000\000\000\000\000\000\002\000\000\000\000\000\000\000\001\000\000\000\000\000\000\000\003\000\000\000\000\000\000\000\001\000\000\000\000\000\000\000\001\000\000\000\000\000\000\000\001\000\000\000\000\000\000\000\001\000\000\000\000\000\000\000\002\000\000\000\000\000\000\000\001\000\000\000\000\000\000\000\003\000\000\000\000\000\000\000\002\000\000\000\000\000\000\000\001\000\000\000\000\000\000\000\002\000\000\000\000\000\000\000\003\000\000\000\000\000\000\000\001\000\000\000\000\000\000\000\002\000\000\000\000\000\000\000\002\000\000\000\000\000\000\000\003\000\000\000\000\000\000\000\001\000\000\000\000\000\000\000\003\000\000\000\000\000\000\000\001\000\000\000\000\000\000\000\001\000\000\000\000\000\000\000\001\000\000\000\000\000\000\000\001\000\000\000\000\000\000\000\001\000\000\000\000\000\000\000\001\000\000\000\000\000\000\000\001\000\000\000\000\000\000\000\001\000\000\000\000\000\000\000\003\000\000\000\000\000\000\000\001\000\000\000\000\000\000\000\001\000\000\000\000\000\000\000\003\000\000\000\000\000\000\000\003\000\000\000\000\000\000\000\001\000\000\000\000\000\000\000\001\000\000\000\000\000\000\000\001\000\000\000\000\000\000\000\001\000\000\000\000\000\000\000\001\000\000\000\000\000\000\000\001\000\000\000\000\000\000\000\001\000\000\000\000\000\000\000\002\000\000\000\000\000\000\000\001\000\000\000\000\000\000\000\001\000\000\000\000\000\000\000\002\000\000\000\000\000\000\000\003\000\000\000\000\000\000\000\003\000\000\000\000\000\000\000\003\000\000\000\000\000\000\000\002\000\000\000\000\000\000\000\002\000\000\000\000\000\000\000\003\000\000\000\000\000\000\000\001\000\000\000\000\000\000\000\003\000\000\000\000\000\000\000\001\000\000\000\000\000\000\000\001\000\000\000\000\000\000\000\001\000\000\000\000\000\000\000\001\000\000\000\000\000\000\000\002\000\000\000\000\000\000\000\001\000\000\000\000\000\000\000\001\000\000\000\000\000\000\000\003\000\000\000\000\000\000\000\001\000\000\000\000\000\000\000\001\000\000\000\000\000\000\000\002\000\000\000\000\000\000\000\001\000\000\000\000\000\000\000\003\000\000\000\000\000\000\000\002\000\000\000\000\000\000\000\002\000\000\000\000\000\000\000\001\000\000\000\000\000\000\000\001\000\000\000\000\000\000\000\002\000\000\000\000\000\000\000\003\000\000\000\000\000\000\000\001\000\000\000\000\000\000\000\002\000\000\000\000\000\000\000\001\000\000\000\000\000\000\000\001\000\000\000\000\000\000\000\001\000\000\000\000\000\000\000\003\000\000\000\000\000\000\000\001\000\000\000\000\000\000\000\001\000\000\000\000\000\000\000\003\000\000\000\000\000\000\000\001\000\000\000\000\000\000\000\001\000\000\000\000\000\000\000\001\000\000\000\000\000\000\000\003\000\000\000\000\000\000\000\001\000\000\000\000\000\000\000\001\000\000\000\000\000\000\000\001\000\000\000\000\000\000\000\001\000\000\000\000\000\000\000\003\000\000\000\000\000\000\000\001\000\000\000\000\000\000\000\001\000\000\000\000\000\000\000\001\000\000\000\000\000\000\000\001\000\000\000\000\000\000\000\001\000\000\000\000\000\000\000\001\000\000\000\000\000\000\000\001\000\000\000\000\000\000\000\001\000\000\000\000\000\000\000\003\000\000\000\000\000\000\000\001\000\000\000\000\000\000\000\001\000\000\000\000\000\000\000\001\000\000\000\000\000\000\000\003\000\000\000\000\000\000\000\001\000\000\000\000\000\000\000\001\000\000\000\000\000\000\000\001\000\000\000\000\000\000\000\002\000\000\000\000\000\000\000\001\000\000\000\000\000\000\000\003\000\000\000\000\000\000\000\003\000\000\000\000\000\000\000\001\000\000\000\000\000\000\000\001\000\000\000\000\000\000\000\001\000\000\000\000\000\000\000\002\000\000\000\000\000\000\000\001\000\000\000\000\000\000\000\001\000\000\000\000\000\000\000\001\000\000\000\000\000\000\000\001\000\000\000\000\000\000\000\003\000\000\000\000\000\000\000\001\000\000\000\000\000\000\000\002\000\000\000\000\000\000\000\002\000\000\000\000\000\000\000\002\000\000\000\000\000\000\000\001\000\000\000\000\000\000\000\001\000\000\000\000\000\000\000\001\000\000\000\000\000\000\000\003\000\000\000\000\000\000\000\001\000\000\000\000\000\000\000\003\000\000\000\000\000\000\000\001\000\000\000\000\000\000\000\003\000\000\000\000\000\000\000\001\000\000\000\000\000\000\000\001\000\000\000\000\000\000\000\001\000\000\000\000\000\000\000\002\000\000\000\000\000\000\000\001\000\000\000\000\000\000\000\001\000\000\000\000\000\000\000\003\000\000\000\000\000\000\000"
      }
    }
  }
}
node {
  name: "normalize_element/component_6"
  op: "Const"
  device: "/device:CPU:0"
  attr {
    key: "_output_shapes"
    value {
      list {
        shape {
          dim {
            size: 313
          }
        }
      }
    }
  }
  attr {
    key: "dtype"
    value {
      type: DT_DOUBLE
    }
  }
  attr {
    key: "value"
    value {
      tensor {
        dtype: DT_DOUBLE
        tensor_shape {
          dim {
            size: 313
          }
        }
        tensor_content: "mB\353\231\335\377\352\277\035\025t\310E\362\375?\316\255\330H\352\024\370?|#6\224\312y\346?\020,]\253\214\345\240\277d8\004\307\263\253\327\277\333[\305K\302\320\306?\022;\nM\374?\362\277\365\'\350K#\343\001@/$\334\350~\313\344?o8i\367KB\350\277~\026#\255n\204\307\277\207\024`@\032S\356\277@N\326p\342\266\352?u\365{\251>\t\330\277t\375\000V\374r\273\277\246\325\214\215\026\327\302\277\211\236\357F\246\353\322\277\036X)\202\253\260\333\277>s=\327:\267\322?P\013NSm\024\353?\2616\312#\tv\354\277-\003\375P\247\325\362\277\336\2632\327d\001\000@|\024\373\017\202\274\335\277\274\325V\356F\004\324\277]\205s\267R\242\352\277\271e\030]\213\312\347?\343\223,\200\370r\342\277v\256\031m\006\320\365\277\321\272;\213\260\356\357\277\351\023_\230D\276\362\277\331\271\347\270\0001\365\277N\233\017\302\261\332\316?\202g\034af-\324?\274\2235\203\327)\363\277\214L\234\3157\201\337?(X\216\262CG\354\277\205\327Z\362!g\340\277\215\354W\266\323\\\343\277Z\0255&\227h\336?\311\246\322\025\365\334\331\277~[\325\\\250\226\364\277\261\032\244m\350\177\360?a\004\022\201\250\t\376?\360\300\032\210\346\204\361\277\316Kl\224\231(\362\2773\265\371\021\022\373\362\2779\025\006\225\316\244\354\277-+\315FFQ\313\277N\344\231\233\326\333\372?\373\334\245n\237\021\356\277h\342\336\026!V\361\277\232\031F\276\301n\362\277s\335\002v\360\215\360?[\217\365Y\344_\355\277\177\0172O\247\376\340?x\341wd\033\216\322\277\031Os\302\267Q\370?\334\027\247\352~\242\366\277\253=k&f\027\372?\n]\030\0032\203\340\277\3561J\260\221\215\373?Z\0255&\227h\336?\372\305\300\211Gz\363?\300\375\303\250%\221\357\277.u,\350dl\221\277\307\325\273\036\337\232\344\277\0236\311{3\341\360\277\250\334\256\212_L\002@b%\314d.\217\361?\211\310\2742\031\273\372?\201L7\235\237\352\356?1+j\013\206b\376?X\215\250\010\246\'\365\277\'\263lD\215\234\370?\232\031F\276\301n\362\277\242o\320\236\354Z\351\277\232\023q\236\002,\364?\244@\347\225\002\235\336\277\221\265\351\000,5\305?=\272\237\023s\360\364?!\002\004\322\030[\365\277\000\203\323;:A\363\277\005\212\331n/y\321?p\262)+\2319\307\277\301\r\223{d2\345?\332cJ\370\177:\332\277\235\t\024\260\302\336\337?w\340\343\025%\252\345\277rT\007\276Z\331\370?J\322}wY\002\355\277\307\257\300i\220\266\357\277\256\336\337\021JG\331\277\376$\024\n\274\317\361\277/\365\3078|\231\277?00\253\334N\301\377?{\217$\353\254#\337?\322]\210\270\026\002\340?[\217\365Y\344_\355\277\272\235\267%i\347\365\277\373\345\276iS_\276\277?\322\030G\301k\334\277.`(4/c\367?,\316T\372\350\226\254\277\222\250\326\031\320?\346\277\0271%o\252\223\302?\375\322#\314\rT\353\277!\002\004\322\030[\365\277\036P\244\325\355F\310?q\217\277\272\024\215\356?\\\t\266\2151W\314\277 \312d\t;>\347?\363\362\t\345V\317\377?\261\262\207M*\301\332?\367\331\304\316j\365\370?tEDJ\000\275\364?\232\031F\276\301n\362\277\240\375\224\027]\315\315\277d8\004\307\263\253\327\277U/\351\326\'\266\363\277\373~^M\017A\321?,o\353\247\211\177\373?\272\235\267%i\347\365\277*N\014\020\262\211\351\277\370\377\3447\013J\334?\356\024CB\245\206\270\277\375B7\266\260\031\315?\341\376\206\210\3448\356?#\370\201/\207\235\362\277M\207n\270NN\366\277\274\325V\356F\004\324\277\371\312\001[\020\331\364?\020E\214\357\215\375\364\277\201\256~\235\236f\366?\204[\235\310\000\034\302\277\370\0279\267\007U\325\277#\363@^\276>\361\277\266\205\306\341,\313\351\277\275\203\336\300\206)\362?H\334\377\031\353\277\357\277\324\\\330\237\314\340\001@\317\250\227w!\266\366?\275\216\364\261\016\313\361\277\246\257\221\330\307\362\315\277oR\272l\034\241\340?V*\250\005_W\362\277Fh\357Q\013\233\360\277F\252\020\275zu\321\277\206\262\363\213\311f\330\277\250\216O\0050\016\357\277\332AO\"\240\001\360?\235/\017e\021\303\324?\212\032\255p\3076\341?\030\233\026\320\270\351\353\277\310,\022\342\247\345\352?8\037\2107`b\357\277k5\210W\027&\363?~P\277k \365\364?q.\347T\272\204\345\277#\370\201/\207\235\362\277\202\353^7E\342\345\277,\316T\372\350\226\254\277\276\300\276Z-\245\341\277\335\2734\n?i\355\277\215\257w\034-\341\363?v\256\031m\006\320\365\277x\244\227\312t\022\363\277^\350s\272\231r\355\277\252\204\315b\236P\354\277h\240\275\253\261{\340?k\322\254\010\"\306\336?\327wN=\243\265\337\277\r\233\261\237 S\333\277r\205=\030\203\317\353?\033\207\022\213\225n\346\277\303E2DBO\363\277\302o\377/\265\036\333?\210\235[\370\257\007\346\277\223f\265\256`e\365?\203\3252U5\237\346?\311\361Y\345\3551\365?=\277\340\344;O\366?\347Y-\206\206\023\350\277ag\355\317\235i\342\277\242o\320\236\354Z\351\277\021\351\031\017N\304\353\277`Z\257A)\000\331?Gy\377\026\244\357\354\277\234\263Q;\360w\346\277JP8\227N\241\272?\357n*J8\t\353\277\315P\255eb\207\363\277\314U\3566+\346\364\277\207\024`@\032S\356\277\265N\273gE\222\370\277\017\r\355&\260\340\346?\304S\201\247\311\232\003@\353\330\313O\334z\373?m+\006\265\205h\360?\030\3471\356\247\"\364?5B\307\000\314\232\335?\2709#\324+3\366?|\220\2709\243\007\354?\267\016\302\231\302\177\341\277\306!k\034\262)\225?^\225B\212\221C\340?\361\273\331\266\035&\360\277\033\364\2240n\374\353\277\266\326\"\321\344b\363?g$\000\202\2200\322\277\352\311k\027BM\304\277L\206\332iXj\371?\271\234#\327r\003\371?:\316\243X\226k\372?\227X\253=N\235\354?`\322G\330\211/\356?\177s\233\371\313>\266?f\027\302\363\033\307\350?W%g4\226\370\360\277]\205s\267R\242\352\277\312\010?\312E\311\357\277\361\273\331\266\035&\360\277\221\037\333a:\213\356\277\023\340+\273\262\352\325\277\332cJ\370\177:\332\277\315\377Pv\252\357\331\277\262,H\201w\270\351\277V\211\027P\'\352\001@\252\223\010\347\346\r\325?\242-\2573}\200\370?\303p\223~\253\002\350?\300\375\303\250%\221\357\277\026\245\230rJ\247\356\277,D\212m \314\346\277\324o,\314\245:\371\277\354\250)D\252h\345\277\010\227<\261\365R\371?\270\027\333\224v\315\261\277!\250\021a\220w\001@~\377b|h]\353\277\222\277\226J\326f\302\277Q\252u\355\022\014\342\277\225W\362:\006I\361?\374\3359\275\225\365\332\277\222,\031\360\256\364\307\277F\237\372\313\362\323\341\277=\277\340\344;O\366?\243\322\320\2413+\354\277\270\204]:O[\267\277\336\261\262g\255\253\352\277>m\033N\246G\272\277\232\031F\276\301n\362\277\362\355\243_<\000\340\277v\307\373G2\273\317?\367\232\347>\360%\312\277aL\010\014\327&\335\2779\371\337\336\255\256\360?u@\003y7^\363?\253\326\275\240L\314\362\277\214L\234\3157\201\337?n\000\312.n%\372?\377\3115xrz\325\277[\222\206\236\256\227\311?\340C\307\032\367\255\262\277\211\303{aP\\\371?(A\251\315\353\257\361?\357\210{\277\010h\343?\236\n\250\376\270\302\354?\021\354\252S\030\374\307?q\252\244~\333\317\323?\377E\363\241\223\305\343?\203\306\367\320\354\341\335\277\300\375\303\250%\221\357\277w\251\330\233=q\364\277\245\345\226\346\221\252\251\277N\344\231\233\326\333\372?\302\363A\006\224\323\354\277\340e\017Z\254\023\367?I\353:\2363}\330?\277\251\376)\'~\325?\231#\310`S,\365\277?\035\240\026\272\300\367?\'b\020U\325\004\357\277g\347\037\350\351\264\362\277\324\321\230\200\366&\377?\200\210^4\376\021\343\277T\212\307hq\013\340?\350l\363\312\344\222\245\277\371\212\335\345tR\263?\306\272\326Z\030X\337\277kW\203-\367^\335\277\013\2038l\322\327\363?E\026\377\023]\037\352\277@Ha\201m\'\207\277\336\010\344v$\206\362\277]\205s\267R\242\352\277V*\250\005_W\362\277a\2045\267\215\246\242\277\034@\260N]5\364?\225W\362:\006I\361?W%g4\226\370\360\277\236\203\324\343\017\326\356\277\230(\t2\034\213\366\277\336\274\310X5M\332\277\300#\277]tu\344\277\245\274\244\277#\350\354?\232C\023\2524>\332?f\252?NC9\343?\227g\346\301\226Z\305?\257Kb\267\"\325\336\277H2\235\332k\266\372?h\342\336\026!V\361\277"
      }
    }
  }
}
node {
  name: "normalize_element/component_7"
  op: "Const"
  device: "/device:CPU:0"
  attr {
    key: "_output_shapes"
    value {
      list {
        shape {
          dim {
            size: 313
          }
        }
      }
    }
  }
  attr {
    key: "dtype"
    value {
      type: DT_DOUBLE
    }
  }
  attr {
    key: "value"
    value {
      tensor {
        dtype: DT_DOUBLE
        tensor_shape {
          dim {
            size: 313
          }
        }
        tensor_content: "\000\000\000\000\000\000:@\000\000\000\000\000\000&@\000\000\000\000\000\000,@\000\000\000\000\000\000,@3333334@ffffff<@\000\000\000\000\000\0004@\000\000\000\000\000\000C@\000\000\000\000\000\000(@\000\000\000\000\000\000.@\000\000\000\000\000\0003@\000\000\000\000\000\0006@\000\000\000\000\000\000<@\232\231\231\231\231\231:@\000\000\000\000\000\000@@ffffff9@\000\000\000\000\000\0008@\000\000\000\000\000\000;@33333s@@\000\000\000\000\000\000>@ffffff3@\232\231\231\231\231YA@\000\000\000\000\000\000:@\000\000\000\000\000\000*@\000\000\000\000\000\0005@\000\000\000\000\000\000?@\000\000\000\000\000\000:@\000\000\000\000\000\2002@\000\000\000\000\000\0008@\315\314\314\314\314\014B@\315\314\314\314\314\014@@\315\314\314\314\314\014C@\000\000\000\000\000\000;@\232\231\231\231\231\0312@\000\000\000\000\000\0003@\000\000\000\000\000\300@@3333333@\000\000\000\000\000\0007@\000\000\000\000\000\0008@\000\000\000\000\000\000<@3333330@\000\000\000\000\000\000;@\000\000\000\000\000\000=@\000\000\000\000\000\0000@\000\000\000\000\000\000,@\000\000\000\000\000\000=@\000\000\000\000\000\000?@\000\000\000\000\000\000:@\232\231\231\231\231\331@@\000\000\000\000\000\0004@\000\000\000\000\000\000*@\000\000\000\000\000\000=@333333A@ffffff@@\000\000\000\000\000\0007@\000\000\000\000\000\200>@\000\000\000\000\000\0002@\000\000\000\000\000\2008@\000\000\000\000\000\000/@\315\314\314\314\314\214C@\000\000\000\000\000\000*@\000\000\000\000\000\0009@\000\000\000\000\000\000*@\232\231\231\231\231\0312@\000\000\000\000\000\0001@fffff\246B@\000\000\000\000\000\0005@\000\000\000\000\000\0008@33333\263C@\000\000\000\000\000\000&@\000\000\000\000\000\2000@\000\000\000\000\000\000,@\000\000\000\000\000\0001@\000\000\000\000\000\000,@\000\000\000\000\000\000@@\000\000\000\000\000\000.@\315\314\314\314\314\214E@\000\000\000\000\000\2009@\000\000\000\000\000\000*@\000\000\000\000\000\000?@\000\000\000\000\000\0002@\000\000\000\000\000\000/@\000\000\000\000\000\200=@\000\000\000\000\000\000=@\000\000\000\000\000\0006@\000\000\000\000\000\0006@\000\000\000\000\000\0002@\232\231\231\231\231\231:@\000\000\000\000\000\2004@\000\000\000\000\000\0005@\000\000\000\000\000\000,@\232\231\231\231\231\031A@\000\000\000\000\000\0009@\000\000\000\000\000\0005@\232\231\231\231\231\231B@\000\000\000\000\000\0004@\000\000\000\000\000\000\"@fffff\3467@\000\000\000\000\000\000.@\000\000\000\000\000\200@@\000\000\000\000\000\200@@\315\314\314\314\314L6@\000\000\000\000\000\000<@\000\000\000\000\000\000*@\000\000\000\000\000\0006@\000\000\000\000\000\000>@\000\000\000\000\000\0002@\000\000\000\000\000\000:@\000\000\000\000\000\000B@33333\263>@3333332@fffff\346;@\000\000\000\000\000\0003@\000\000\000\000\000\000*@\232\231\231\231\231\2314@fffff\3460@\000\000\000\000\000\000,@\000\000\000\000\000\000>@\000\000\000\000\000\000;@ffffff;@\232\231\231\231\231\331A@\232\231\231\231\231\031<@\000\000\000\000\000\000(@\000\000\000\000\000\200@@\000\000\000\000\000\000@@\232\231\231\231\231\0313@\232\231\231\231\231Y@@\000\000\000\000\000\2001@\000\000\000\000\000\000*@\315\314\314\314\314\014A@\000\000\000\000\000\000?@\000\000\000\000\000\2005@\000\000\000\000\000\000.@\315\314\314\314\314\314=@\000\000\000\000\000\0000@ffffff:@\000\000\000\000\000\0008@\232\231\231\231\231\331B@\000\000\000\000\000\000<@\000\000\000\000\000\000*@\000\000\000\000\000\000<@\000\000\000\000\000\000(@\000\000\000\000\000\000,@\315\314\314\314\314\314?@\000\000\000\000\000\0002@\000\000\000\000\000\0001@\000\000\000\000\000\000@@fffff&F@\000\000\000\000\000\2009@\000\000\000\000\000\0008@\000\000\000\000\000\300D@\000\000\000\000\000\000*@\000\000\000\000\000\0000@\232\231\231\231\231\2311@fffff\346>@\000\000\000\000\000\000.@\000\000\000\000\000\200=@\000\000\000\000\000\000,@\000\000\000\000\000\0000@fffff\3467@\000\000\000\000\000\200B@\000\000\000\000\000\000A@\000\000\000\000\000\0009@\000\000\000\000\000\0006@\000\000\000\000\000\000:@\000\000\000\000\000\000.@\315\314\314\314\314\014B@\000\000\000\000\000\000?@fffff&A@\000\000\000\000\000\000=@33333\2631@ffffff6@\000\000\000\000\000\200;@\315\314\314\314\314\3149@\000\000\000\000\000\000*@fffff\346=@\000\000\000\000\000\000=@fffff\3463@\000\000\000\000\000\000:@\000\000\000\000\000\000/@\000\000\000\000\000\0002@\000\000\000\000\000\000,@\000\000\000\000\000\2001@33333\263E@333333;@333333;@\000\000\000\000\000\000:@\000\000\000\000\000\000.@\000\000\000\000\000\000;@\000\000\000\000\000\0006@\000\000\000\000\000\2006@\000\000\000\000\000\0007@fffff\346?@\315\314\314\314\314LF@\000\000\000\000\000\2008@\000\000\000\000\000\000?@\232\231\231\231\231\2312@\000\000\000\000\000\000*@\000\000\000\000\000\0000@\000\000\000\000\000\000.@\000\000\000\000\000\000,@\000\000\000\000\000\000.@\000\000\000\000\000\000,@\000\000\000\000\000\000.@\232\231\231\231\231\0315@\000\000\000\000\000\0008@\000\000\000\000\000\0000@\315\314\314\314\314LG@\000\000\000\000\000\0009@\000\000\000\000\000\000*@3333337@\315\314\314\314\314\3147@\000\000\000\000\000\000,@\000\000\000\000\000\000*@\000\000\000\000\000\000.@\000\000\000\000\000\000.@\000\000\000\000\000\2000@\315\314\314\314\314\3144@\000\000\000\000\000\000,@\000\000\000\000\000\000>@\232\231\231\231\231\031@@\000\000\000\000\000\0002@ffffffD@\000\000\000\000\000\0008@\000\000\000\000\000\0007@\232\231\231\231\231\231?@\000\000\000\000\000\0007@333333@@\000\000\000\000\000\000(@\000\000\000\000\000\0003@\000\000\000\000\000\0000@\000\000\000\000\000\0004@\000\000\000\000\000\000F@\000\000\000\000\000\000>@\000\000\000\000\000\000B@\000\000\000\000\000\200A@\000\000\000\000\000\0006@\000\000\000\000\000\2000@\000\000\000\000\000\0002@\000\000\000\000\000\000(@\000\000\000\000\000\000A@\000\000\000\000\000\0003@\000\000\000\000\000\200A@\000\000\000\000\000\000*@\000\000\000\000\000\000<@\315\314\314\314\314L4@\000\000\000\000\000\0007@\000\000\000\000\000\000-@\000\000\000\000\000\0009@\000\000\000\000\000\0004@\000\000\000\000\000\000<@\000\000\000\000\000\0007@\315\314\314\314\314\014A@\000\000\000\000\000\300@@\000\000\000\000\000\0003@\000\000\000\000\000\0006@\315\314\314\314\314\314<@\000\000\000\000\000\0001@\000\000\000\000\000\000/@\000\000\000\000\000\000@@\000\000\000\000\000\2004@\000\000\000\000\000\000,@\315\314\314\314\314\314:@\000\000\000\000\000\000*@3333338@\000\000\000\000\000\000&@\000\000\000\000\000\000/@\000\000\000\000\000\2002@\000\000\000\000\000\0000@\000\000\000\000\000\000.@3333334@3333333@\000\000\000\000\000\000:@\000\000\000\000\000\000;@\000\000\000\000\000\200C@\000\000\000\000\000\000;@\000\000\000\000\000\000,@\000\000\000\000\000\000B@\000\000\000\000\000\000,@\000\000\000\000\000\0001@\000\000\000\000\000\0002@\000\000\000\000\000\000:@\000\000\000\000\000\000*@fffff\346@@\000\000\000\000\000\000?@\000\000\000\000\000\000*@\000\000\000\000\000\0005@\000\000\000\000\000\0000@\000\000\000\000\000\0007@3333334@\000\000\000\000\000\200:@\000\000\000\000\000\0007@\000\000\000\000\000\2001@\000\000\000\000\000\0004@\000\000\000\000\000\0002@\000\000\000\000\000\000B@\000\000\000\000\000\000:@\000\000\000\000\000\200?@\000\000\000\000\000\0002@\000\000\000\000\000\000*@\000\000\000\000\000\2002@fffff&@@\000\000\000\000\000@A@\315\314\314\314\314\214A@\000\000\000\000\000\0003@\000\000\000\000\000\200B@\000\000\000\000\000\0002@\000\000\000\000\000\0006@\000\000\000\000\000\2001@\000\000\000\000\000\0001@\000\000\000\000\000\0009@\000\000\000\000\000\000(@\000\000\000\000\000\200?@"
      }
    }
  }
}
node {
  name: "TensorSliceDataset"
  op: "TensorSliceDataset"
  input: "normalize_element/component_0"
  input: "normalize_element/component_1"
  input: "normalize_element/component_2"
  input: "normalize_element/component_3"
  input: "normalize_element/component_4"
  input: "normalize_element/component_5"
  input: "normalize_element/component_6"
  input: "normalize_element/component_7"
  device: "/device:CPU:0"
  attr {
    key: "Toutput_types"
    value {
      list {
        type: DT_DOUBLE
        type: DT_DOUBLE
        type: DT_DOUBLE
        type: DT_DOUBLE
        type: DT_INT64
        type: DT_INT64
        type: DT_DOUBLE
        type: DT_DOUBLE
      }
    }
  }
  attr {
    key: "_output_shapes"
    value {
      list {
        shape {
        }
      }
    }
  }
  attr {
    key: "is_files"
    value {
      b: false
    }
  }
  attr {
    key: "metadata"
    value {
      s: ""
    }
  }
  attr {
    key: "output_shapes"
    value {
      list {
        shape {
        }
        shape {
        }
        shape {
        }
        shape {
        }
        shape {
        }
        shape {
        }
        shape {
        }
        shape {
        }
      }
    }
  }
  attr {
    key: "replicate_on_split"
    value {
      b: false
    }
  }
  experimental_type {
    type_id: TFT_PRODUCT
    args {
      type_id: TFT_DATASET
      args {
        type_id: TFT_PRODUCT
        args {
          type_id: TFT_TENSOR
          args {
            type_id: TFT_DOUBLE
          }
        }
        args {
          type_id: TFT_TENSOR
          args {
            type_id: TFT_DOUBLE
          }
        }
        args {
          type_id: TFT_TENSOR
          args {
            type_id: TFT_DOUBLE
          }
        }
        args {
          type_id: TFT_TENSOR
          args {
            type_id: TFT_DOUBLE
          }
        }
        args {
          type_id: TFT_TENSOR
          args {
            type_id: TFT_INT64
          }
        }
        args {
          type_id: TFT_TENSOR
          args {
            type_id: TFT_INT64
          }
        }
        args {
          type_id: TFT_TENSOR
          args {
            type_id: TFT_DOUBLE
          }
        }
        args {
          type_id: TFT_TENSOR
          args {
            type_id: TFT_DOUBLE
          }
        }
      }
    }
  }
}
node {
  name: "buffer_size"
  op: "Const"
  device: "/device:CPU:0"
  attr {
    key: "_output_shapes"
    value {
      list {
        shape {
        }
      }
    }
  }
  attr {
    key: "dtype"
    value {
      type: DT_INT64
    }
  }
  attr {
    key: "value"
    value {
      tensor {
        dtype: DT_INT64
        tensor_shape {
        }
        int64_val: 1000
      }
    }
  }
}
node {
  name: "seed"
  op: "Const"
  device: "/device:CPU:0"
  attr {
    key: "_output_shapes"
    value {
      list {
        shape {
        }
      }
    }
  }
  attr {
    key: "dtype"
    value {
      type: DT_INT64
    }
  }
  attr {
    key: "value"
    value {
      tensor {
        dtype: DT_INT64
        tensor_shape {
        }
        int64_val: 0
      }
    }
  }
}
node {
  name: "seed2"
  op: "Const"
  device: "/device:CPU:0"
  attr {
    key: "_output_shapes"
    value {
      list {
        shape {
        }
      }
    }
  }
  attr {
    key: "dtype"
    value {
      type: DT_INT64
    }
  }
  attr {
    key: "value"
    value {
      tensor {
        dtype: DT_INT64
        tensor_shape {
        }
        int64_val: 0
      }
    }
  }
}
node {
  name: "ShuffleDataset"
  op: "ShuffleDataset"
  input: "TensorSliceDataset"
  input: "buffer_size"
  input: "seed"
  input: "seed2"
  device: "/device:CPU:0"
  attr {
    key: "_output_shapes"
    value {
      list {
        shape {
        }
      }
    }
  }
  attr {
    key: "metadata"
    value {
      s: ""
    }
  }
  attr {
    key: "output_shapes"
    value {
      list {
        shape {
        }
        shape {
        }
        shape {
        }
        shape {
        }
        shape {
        }
        shape {
        }
        shape {
        }
        shape {
        }
      }
    }
  }
  attr {
    key: "output_types"
    value {
      list {
        type: DT_DOUBLE
        type: DT_DOUBLE
        type: DT_DOUBLE
        type: DT_DOUBLE
        type: DT_INT64
        type: DT_INT64
        type: DT_DOUBLE
        type: DT_DOUBLE
      }
    }
  }
  attr {
    key: "reshuffle_each_iteration"
    value {
      b: true
    }
  }
  experimental_type {
    type_id: TFT_PRODUCT
    args {
      type_id: TFT_DATASET
      args {
        type_id: TFT_PRODUCT
        args {
          type_id: TFT_TENSOR
          args {
            type_id: TFT_DOUBLE
          }
        }
        args {
          type_id: TFT_TENSOR
          args {
            type_id: TFT_DOUBLE
          }
        }
        args {
          type_id: TFT_TENSOR
          args {
            type_id: TFT_DOUBLE
          }
        }
        args {
          type_id: TFT_TENSOR
          args {
            type_id: TFT_DOUBLE
          }
        }
        args {
          type_id: TFT_TENSOR
          args {
            type_id: TFT_INT64
          }
        }
        args {
          type_id: TFT_TENSOR
          args {
            type_id: TFT_INT64
          }
        }
        args {
          type_id: TFT_TENSOR
          args {
            type_id: TFT_DOUBLE
          }
        }
        args {
          type_id: TFT_TENSOR
          args {
            type_id: TFT_DOUBLE
          }
        }
      }
    }
  }
}
node {
  name: "count"
  op: "Const"
  device: "/device:CPU:0"
  attr {
    key: "_output_shapes"
    value {
      list {
        shape {
        }
      }
    }
  }
  attr {
    key: "dtype"
    value {
      type: DT_INT64
    }
  }
  attr {
    key: "value"
    value {
      tensor {
        dtype: DT_INT64
        tensor_shape {
        }
        int64_val: -1
      }
    }
  }
}
node {
  name: "RepeatDataset"
  op: "RepeatDataset"
  input: "ShuffleDataset"
  input: "count"
  device: "/device:CPU:0"
  attr {
    key: "_output_shapes"
    value {
      list {
        shape {
        }
      }
    }
  }
  attr {
    key: "metadata"
    value {
      s: ""
    }
  }
  attr {
    key: "output_shapes"
    value {
      list {
        shape {
        }
        shape {
        }
        shape {
        }
        shape {
        }
        shape {
        }
        shape {
        }
        shape {
        }
        shape {
        }
      }
    }
  }
  attr {
    key: "output_types"
    value {
      list {
        type: DT_DOUBLE
        type: DT_DOUBLE
        type: DT_DOUBLE
        type: DT_DOUBLE
        type: DT_INT64
        type: DT_INT64
        type: DT_DOUBLE
        type: DT_DOUBLE
      }
    }
  }
  experimental_type {
    type_id: TFT_PRODUCT
    args {
      type_id: TFT_DATASET
      args {
        type_id: TFT_PRODUCT
        args {
          type_id: TFT_TENSOR
          args {
            type_id: TFT_DOUBLE
          }
        }
        args {
          type_id: TFT_TENSOR
          args {
            type_id: TFT_DOUBLE
          }
        }
        args {
          type_id: TFT_TENSOR
          args {
            type_id: TFT_DOUBLE
          }
        }
        args {
          type_id: TFT_TENSOR
          args {
            type_id: TFT_DOUBLE
          }
        }
        args {
          type_id: TFT_TENSOR
          args {
            type_id: TFT_INT64
          }
        }
        args {
          type_id: TFT_TENSOR
          args {
            type_id: TFT_INT64
          }
        }
        args {
          type_id: TFT_TENSOR
          args {
            type_id: TFT_DOUBLE
          }
        }
        args {
          type_id: TFT_TENSOR
          args {
            type_id: TFT_DOUBLE
          }
        }
      }
    }
  }
}
node {
  name: "batch_size"
  op: "Const"
  device: "/device:CPU:0"
  attr {
    key: "_output_shapes"
    value {
      list {
        shape {
        }
      }
    }
  }
  attr {
    key: "dtype"
    value {
      type: DT_INT64
    }
  }
  attr {
    key: "value"
    value {
      tensor {
        dtype: DT_INT64
        tensor_shape {
        }
        int64_val: 8
      }
    }
  }
}
node {
  name: "drop_remainder"
  op: "Const"
  device: "/device:CPU:0"
  attr {
    key: "_output_shapes"
    value {
      list {
        shape {
        }
      }
    }
  }
  attr {
    key: "dtype"
    value {
      type: DT_BOOL
    }
  }
  attr {
    key: "value"
    value {
      tensor {
        dtype: DT_BOOL
        tensor_shape {
        }
        bool_val: false
      }
    }
  }
}
node {
  name: "BatchDatasetV2"
  op: "BatchDatasetV2"
  input: "RepeatDataset"
  input: "batch_size"
  input: "drop_remainder"
  device: "/device:CPU:0"
  attr {
    key: "_output_shapes"
    value {
      list {
        shape {
        }
      }
    }
  }
  attr {
    key: "metadata"
    value {
      s: ""
    }
  }
  attr {
    key: "output_shapes"
    value {
      list {
        shape {
          dim {
            size: -1
          }
        }
        shape {
          dim {
            size: -1
          }
        }
        shape {
          dim {
            size: -1
          }
        }
        shape {
          dim {
            size: -1
          }
        }
        shape {
          dim {
            size: -1
          }
        }
        shape {
          dim {
            size: -1
          }
        }
        shape {
          dim {
            size: -1
          }
        }
        shape {
          dim {
            size: -1
          }
        }
      }
    }
  }
  attr {
    key: "output_types"
    value {
      list {
        type: DT_DOUBLE
        type: DT_DOUBLE
        type: DT_DOUBLE
        type: DT_DOUBLE
        type: DT_INT64
        type: DT_INT64
        type: DT_DOUBLE
        type: DT_DOUBLE
      }
    }
  }
  attr {
    key: "parallel_copy"
    value {
      b: false
    }
  }
  experimental_type {
    type_id: TFT_PRODUCT
    args {
      type_id: TFT_DATASET
      args {
        type_id: TFT_PRODUCT
        args {
          type_id: TFT_TENSOR
          args {
            type_id: TFT_DOUBLE
          }
        }
        args {
          type_id: TFT_TENSOR
          args {
            type_id: TFT_DOUBLE
          }
        }
        args {
          type_id: TFT_TENSOR
          args {
            type_id: TFT_DOUBLE
          }
        }
        args {
          type_id: TFT_TENSOR
          args {
            type_id: TFT_DOUBLE
          }
        }
        args {
          type_id: TFT_TENSOR
          args {
            type_id: TFT_INT64
          }
        }
        args {
          type_id: TFT_TENSOR
          args {
            type_id: TFT_INT64
          }
        }
        args {
          type_id: TFT_TENSOR
          args {
            type_id: TFT_DOUBLE
          }
        }
        args {
          type_id: TFT_TENSOR
          args {
            type_id: TFT_DOUBLE
          }
        }
      }
    }
  }
}
node {
  name: "IteratorV2"
  op: "IteratorV2"
  device: "/device:CPU:0"
  attr {
    key: "_class"
    value {
      list {
        s: "loc:@BatchDatasetV2"
      }
    }
  }
  attr {
    key: "_output_shapes"
    value {
      list {
        shape {
        }
      }
    }
  }
  attr {
    key: "container"
    value {
      s: ""
    }
  }
  attr {
    key: "output_shapes"
    value {
      list {
        shape {
          dim {
            size: -1
          }
        }
        shape {
          dim {
            size: -1
          }
        }
        shape {
          dim {
            size: -1
          }
        }
        shape {
          dim {
            size: -1
          }
        }
        shape {
          dim {
            size: -1
          }
        }
        shape {
          dim {
            size: -1
          }
        }
        shape {
          dim {
            size: -1
          }
        }
        shape {
          dim {
            size: -1
          }
        }
      }
    }
  }
  attr {
    key: "output_types"
    value {
      list {
        type: DT_DOUBLE
        type: DT_DOUBLE
        type: DT_DOUBLE
        type: DT_DOUBLE
        type: DT_INT64
        type: DT_INT64
        type: DT_DOUBLE
        type: DT_DOUBLE
      }
    }
  }
  attr {
    key: "shared_name"
    value {
      s: ""
    }
  }
}
node {
  name: "MakeIterator"
  op: "MakeIterator"
  input: "BatchDatasetV2"
  input: "IteratorV2"
  device: "/device:CPU:0"
  attr {
    key: "_class"
    value {
      list {
        s: "loc:@BatchDatasetV2"
      }
    }
  }
  experimental_type {
    type_id: TFT_PRODUCT
  }
}
node {
  name: "IteratorToStringHandle"
  op: "IteratorToStringHandle"
  input: "IteratorV2"
  device: "/device:CPU:0"
  attr {
    key: "_class"
    value {
      list {
        s: "loc:@BatchDatasetV2"
      }
    }
  }
  attr {
    key: "_output_shapes"
    value {
      list {
        shape {
        }
      }
    }
  }
}
node {
  name: "IteratorGetNext"
  op: "IteratorGetNext"
  input: "IteratorV2"
  device: "/device:CPU:0"
  attr {
    key: "_class"
    value {
      list {
        s: "loc:@BatchDatasetV2"
      }
    }
  }
  attr {
    key: "_output_shapes"
    value {
      list {
        shape {
          dim {
            size: -1
          }
        }
        shape {
          dim {
            size: -1
          }
        }
        shape {
          dim {
            size: -1
          }
        }
        shape {
          dim {
            size: -1
          }
        }
        shape {
          dim {
            size: -1
          }
        }
        shape {
          dim {
            size: -1
          }
        }
        shape {
          dim {
            size: -1
          }
        }
        shape {
          dim {
            size: -1
          }
        }
      }
    }
  }
  attr {
    key: "output_shapes"
    value {
      list {
        shape {
          dim {
            size: -1
          }
        }
        shape {
          dim {
            size: -1
          }
        }
        shape {
          dim {
            size: -1
          }
        }
        shape {
          dim {
            size: -1
          }
        }
        shape {
          dim {
            size: -1
          }
        }
        shape {
          dim {
            size: -1
          }
        }
        shape {
          dim {
            size: -1
          }
        }
        shape {
          dim {
            size: -1
          }
        }
      }
    }
  }
  attr {
    key: "output_types"
    value {
      list {
        type: DT_DOUBLE
        type: DT_DOUBLE
        type: DT_DOUBLE
        type: DT_DOUBLE
        type: DT_INT64
        type: DT_INT64
        type: DT_DOUBLE
        type: DT_DOUBLE
      }
    }
  }
}
node {
  name: "dnn/Cast"
  op: "Cast"
  input: "IteratorGetNext"
  attr {
    key: "DstT"
    value {
      type: DT_FLOAT
    }
  }
  attr {
    key: "SrcT"
    value {
      type: DT_DOUBLE
    }
  }
  attr {
    key: "Truncate"
    value {
      b: false
    }
  }
  attr {
    key: "_output_shapes"
    value {
      list {
        shape {
          dim {
            size: -1
          }
        }
      }
    }
  }
}
node {
  name: "dnn/Cast_1"
  op: "Cast"
  input: "IteratorGetNext:1"
  attr {
    key: "DstT"
    value {
      type: DT_FLOAT
    }
  }
  attr {
    key: "SrcT"
    value {
      type: DT_DOUBLE
    }
  }
  attr {
    key: "Truncate"
    value {
      b: false
    }
  }
  attr {
    key: "_output_shapes"
    value {
      list {
        shape {
          dim {
            size: -1
          }
        }
      }
    }
  }
}
node {
  name: "dnn/Cast_2"
  op: "Cast"
  input: "IteratorGetNext:2"
  attr {
    key: "DstT"
    value {
      type: DT_FLOAT
    }
  }
  attr {
    key: "SrcT"
    value {
      type: DT_DOUBLE
    }
  }
  attr {
    key: "Truncate"
    value {
      b: false
    }
  }
  attr {
    key: "_output_shapes"
    value {
      list {
        shape {
          dim {
            size: -1
          }
        }
      }
    }
  }
}
node {
  name: "dnn/Cast_3"
  op: "Cast"
  input: "IteratorGetNext:3"
  attr {
    key: "DstT"
    value {
      type: DT_FLOAT
    }
  }
  attr {
    key: "SrcT"
    value {
      type: DT_DOUBLE
    }
  }
  attr {
    key: "Truncate"
    value {
      b: false
    }
  }
  attr {
    key: "_output_shapes"
    value {
      list {
        shape {
          dim {
            size: -1
          }
        }
      }
    }
  }
}
node {
  name: "dnn/Cast_4"
  op: "Cast"
  input: "IteratorGetNext:6"
  attr {
    key: "DstT"
    value {
      type: DT_FLOAT
    }
  }
  attr {
    key: "SrcT"
    value {
      type: DT_DOUBLE
    }
  }
  attr {
    key: "Truncate"
    value {
      b: false
    }
  }
  attr {
    key: "_output_shapes"
    value {
      list {
        shape {
          dim {
            size: -1
          }
        }
      }
    }
  }
}
node {
  name: "dnn/input_from_feature_columns/input_layer/Acceleration_1/ExpandDims/dim"
  op: "Const"
  attr {
    key: "_output_shapes"
    value {
      list {
        shape {
        }
      }
    }
  }
  attr {
    key: "dtype"
    value {
      type: DT_INT32
    }
  }
  attr {
    key: "value"
    value {
      tensor {
        dtype: DT_INT32
        tensor_shape {
        }
        int_val: -1
      }
    }
  }
}
node {
  name: "dnn/input_from_feature_columns/input_layer/Acceleration_1/ExpandDims"
  op: "ExpandDims"
  input: "dnn/Cast"
  input: "dnn/input_from_feature_columns/input_layer/Acceleration_1/ExpandDims/dim"
  attr {
    key: "T"
    value {
      type: DT_FLOAT
    }
  }
  attr {
    key: "Tdim"
    value {
      type: DT_INT32
    }
  }
  attr {
    key: "_output_shapes"
    value {
      list {
        shape {
          dim {
            size: -1
          }
          dim {
            size: 1
          }
        }
      }
    }
  }
}
node {
  name: "dnn/input_from_feature_columns/input_layer/Acceleration_1/Shape"
  op: "Shape"
  input: "dnn/input_from_feature_columns/input_layer/Acceleration_1/ExpandDims"
  attr {
    key: "T"
    value {
      type: DT_FLOAT
    }
  }
  attr {
    key: "_output_shapes"
    value {
      list {
        shape {
          dim {
            size: 2
          }
        }
      }
    }
  }
  attr {
    key: "out_type"
    value {
      type: DT_INT32
    }
  }
}
node {
  name: "dnn/input_from_feature_columns/input_layer/Acceleration_1/strided_slice/stack"
  op: "Const"
  attr {
    key: "_output_shapes"
    value {
      list {
        shape {
          dim {
            size: 1
          }
        }
      }
    }
  }
  attr {
    key: "dtype"
    value {
      type: DT_INT32
    }
  }
  attr {
    key: "value"
    value {
      tensor {
        dtype: DT_INT32
        tensor_shape {
          dim {
            size: 1
          }
        }
        int_val: 0
      }
    }
  }
}
node {
  name: "dnn/input_from_feature_columns/input_layer/Acceleration_1/strided_slice/stack_1"
  op: "Const"
  attr {
    key: "_output_shapes"
    value {
      list {
        shape {
          dim {
            size: 1
          }
        }
      }
    }
  }
  attr {
    key: "dtype"
    value {
      type: DT_INT32
    }
  }
  attr {
    key: "value"
    value {
      tensor {
        dtype: DT_INT32
        tensor_shape {
          dim {
            size: 1
          }
        }
        int_val: 1
      }
    }
  }
}
node {
  name: "dnn/input_from_feature_columns/input_layer/Acceleration_1/strided_slice/stack_2"
  op: "Const"
  attr {
    key: "_output_shapes"
    value {
      list {
        shape {
          dim {
            size: 1
          }
        }
      }
    }
  }
  attr {
    key: "dtype"
    value {
      type: DT_INT32
    }
  }
  attr {
    key: "value"
    value {
      tensor {
        dtype: DT_INT32
        tensor_shape {
          dim {
            size: 1
          }
        }
        int_val: 1
      }
    }
  }
}
node {
  name: "dnn/input_from_feature_columns/input_layer/Acceleration_1/strided_slice"
  op: "StridedSlice"
  input: "dnn/input_from_feature_columns/input_layer/Acceleration_1/Shape"
  input: "dnn/input_from_feature_columns/input_layer/Acceleration_1/strided_slice/stack"
  input: "dnn/input_from_feature_columns/input_layer/Acceleration_1/strided_slice/stack_1"
  input: "dnn/input_from_feature_columns/input_layer/Acceleration_1/strided_slice/stack_2"
  attr {
    key: "Index"
    value {
      type: DT_INT32
    }
  }
  attr {
    key: "T"
    value {
      type: DT_INT32
    }
  }
  attr {
    key: "_output_shapes"
    value {
      list {
        shape {
        }
      }
    }
  }
  attr {
    key: "begin_mask"
    value {
      i: 0
    }
  }
  attr {
    key: "ellipsis_mask"
    value {
      i: 0
    }
  }
  attr {
    key: "end_mask"
    value {
      i: 0
    }
  }
  attr {
    key: "new_axis_mask"
    value {
      i: 0
    }
  }
  attr {
    key: "shrink_axis_mask"
    value {
      i: 1
    }
  }
}
node {
  name: "dnn/input_from_feature_columns/input_layer/Acceleration_1/Reshape/shape/1"
  op: "Const"
  attr {
    key: "_output_shapes"
    value {
      list {
        shape {
        }
      }
    }
  }
  attr {
    key: "dtype"
    value {
      type: DT_INT32
    }
  }
  attr {
    key: "value"
    value {
      tensor {
        dtype: DT_INT32
        tensor_shape {
        }
        int_val: 1
      }
    }
  }
}
node {
  name: "dnn/input_from_feature_columns/input_layer/Acceleration_1/Reshape/shape"
  op: "Pack"
  input: "dnn/input_from_feature_columns/input_layer/Acceleration_1/strided_slice"
  input: "dnn/input_from_feature_columns/input_layer/Acceleration_1/Reshape/shape/1"
  attr {
    key: "N"
    value {
      i: 2
    }
  }
  attr {
    key: "T"
    value {
      type: DT_INT32
    }
  }
  attr {
    key: "_output_shapes"
    value {
      list {
        shape {
          dim {
            size: 2
          }
        }
      }
    }
  }
  attr {
    key: "axis"
    value {
      i: 0
    }
  }
}
node {
  name: "dnn/input_from_feature_columns/input_layer/Acceleration_1/Reshape"
  op: "Reshape"
  input: "dnn/input_from_feature_columns/input_layer/Acceleration_1/ExpandDims"
  input: "dnn/input_from_feature_columns/input_layer/Acceleration_1/Reshape/shape"
  attr {
    key: "T"
    value {
      type: DT_FLOAT
    }
  }
  attr {
    key: "Tshape"
    value {
      type: DT_INT32
    }
  }
  attr {
    key: "_output_shapes"
    value {
      list {
        shape {
          dim {
            size: -1
          }
          dim {
            size: 1
          }
        }
      }
    }
  }
}
node {
  name: "dnn/input_from_feature_columns/input_layer/Cylinders_1/ExpandDims/dim"
  op: "Const"
  attr {
    key: "_output_shapes"
    value {
      list {
        shape {
        }
      }
    }
  }
  attr {
    key: "dtype"
    value {
      type: DT_INT32
    }
  }
  attr {
    key: "value"
    value {
      tensor {
        dtype: DT_INT32
        tensor_shape {
        }
        int_val: -1
      }
    }
  }
}
node {
  name: "dnn/input_from_feature_columns/input_layer/Cylinders_1/ExpandDims"
  op: "ExpandDims"
  input: "dnn/Cast_1"
  input: "dnn/input_from_feature_columns/input_layer/Cylinders_1/ExpandDims/dim"
  attr {
    key: "T"
    value {
      type: DT_FLOAT
    }
  }
  attr {
    key: "Tdim"
    value {
      type: DT_INT32
    }
  }
  attr {
    key: "_output_shapes"
    value {
      list {
        shape {
          dim {
            size: -1
          }
          dim {
            size: 1
          }
        }
      }
    }
  }
}
node {
  name: "dnn/input_from_feature_columns/input_layer/Cylinders_1/Shape"
  op: "Shape"
  input: "dnn/input_from_feature_columns/input_layer/Cylinders_1/ExpandDims"
  attr {
    key: "T"
    value {
      type: DT_FLOAT
    }
  }
  attr {
    key: "_output_shapes"
    value {
      list {
        shape {
          dim {
            size: 2
          }
        }
      }
    }
  }
  attr {
    key: "out_type"
    value {
      type: DT_INT32
    }
  }
}
node {
  name: "dnn/input_from_feature_columns/input_layer/Cylinders_1/strided_slice/stack"
  op: "Const"
  attr {
    key: "_output_shapes"
    value {
      list {
        shape {
          dim {
            size: 1
          }
        }
      }
    }
  }
  attr {
    key: "dtype"
    value {
      type: DT_INT32
    }
  }
  attr {
    key: "value"
    value {
      tensor {
        dtype: DT_INT32
        tensor_shape {
          dim {
            size: 1
          }
        }
        int_val: 0
      }
    }
  }
}
node {
  name: "dnn/input_from_feature_columns/input_layer/Cylinders_1/strided_slice/stack_1"
  op: "Const"
  attr {
    key: "_output_shapes"
    value {
      list {
        shape {
          dim {
            size: 1
          }
        }
      }
    }
  }
  attr {
    key: "dtype"
    value {
      type: DT_INT32
    }
  }
  attr {
    key: "value"
    value {
      tensor {
        dtype: DT_INT32
        tensor_shape {
          dim {
            size: 1
          }
        }
        int_val: 1
      }
    }
  }
}
node {
  name: "dnn/input_from_feature_columns/input_layer/Cylinders_1/strided_slice/stack_2"
  op: "Const"
  attr {
    key: "_output_shapes"
    value {
      list {
        shape {
          dim {
            size: 1
          }
        }
      }
    }
  }
  attr {
    key: "dtype"
    value {
      type: DT_INT32
    }
  }
  attr {
    key: "value"
    value {
      tensor {
        dtype: DT_INT32
        tensor_shape {
          dim {
            size: 1
          }
        }
        int_val: 1
      }
    }
  }
}
node {
  name: "dnn/input_from_feature_columns/input_layer/Cylinders_1/strided_slice"
  op: "StridedSlice"
  input: "dnn/input_from_feature_columns/input_layer/Cylinders_1/Shape"
  input: "dnn/input_from_feature_columns/input_layer/Cylinders_1/strided_slice/stack"
  input: "dnn/input_from_feature_columns/input_layer/Cylinders_1/strided_slice/stack_1"
  input: "dnn/input_from_feature_columns/input_layer/Cylinders_1/strided_slice/stack_2"
  attr {
    key: "Index"
    value {
      type: DT_INT32
    }
  }
  attr {
    key: "T"
    value {
      type: DT_INT32
    }
  }
  attr {
    key: "_output_shapes"
    value {
      list {
        shape {
        }
      }
    }
  }
  attr {
    key: "begin_mask"
    value {
      i: 0
    }
  }
  attr {
    key: "ellipsis_mask"
    value {
      i: 0
    }
  }
  attr {
    key: "end_mask"
    value {
      i: 0
    }
  }
  attr {
    key: "new_axis_mask"
    value {
      i: 0
    }
  }
  attr {
    key: "shrink_axis_mask"
    value {
      i: 1
    }
  }
}
node {
  name: "dnn/input_from_feature_columns/input_layer/Cylinders_1/Reshape/shape/1"
  op: "Const"
  attr {
    key: "_output_shapes"
    value {
      list {
        shape {
        }
      }
    }
  }
  attr {
    key: "dtype"
    value {
      type: DT_INT32
    }
  }
  attr {
    key: "value"
    value {
      tensor {
        dtype: DT_INT32
        tensor_shape {
        }
        int_val: 1
      }
    }
  }
}
node {
  name: "dnn/input_from_feature_columns/input_layer/Cylinders_1/Reshape/shape"
  op: "Pack"
  input: "dnn/input_from_feature_columns/input_layer/Cylinders_1/strided_slice"
  input: "dnn/input_from_feature_columns/input_layer/Cylinders_1/Reshape/shape/1"
  attr {
    key: "N"
    value {
      i: 2
    }
  }
  attr {
    key: "T"
    value {
      type: DT_INT32
    }
  }
  attr {
    key: "_output_shapes"
    value {
      list {
        shape {
          dim {
            size: 2
