node {
  name: "global_step/Initializer/zeros"
  op: "Const"
  attr {
    key: "_class"
    value {
      list {
        s: "loc:@global_step"
      }
    }
  }
  attr {
    key: "_output_shapes"
    value {
      list {
        shape {
        }
      }
    }
  }
  attr {
    key: "dtype"
    value {
      type: DT_INT64
    }
  }
  attr {
    key: "value"
    value {
      tensor {
        dtype: DT_INT64
        tensor_shape {
        }
        int64_val: 0
      }
    }
  }
}
node {
  name: "global_step"
  op: "VarHandleOp"
  attr {
    key: "_class"
    value {
      list {
        s: "loc:@global_step"
      }
    }
  }
  attr {
    key: "_output_shapes"
    value {
      list {
        shape {
        }
      }
    }
  }
  attr {
    key: "allowed_devices"
    value {
      list {
      }
    }
  }
  attr {
    key: "container"
    value {
      s: ""
    }
  }
  attr {
    key: "dtype"
    value {
      type: DT_INT64
    }
  }
  attr {
    key: "shape"
    value {
      shape {
      }
    }
  }
  attr {
    key: "shared_name"
    value {
      s: "global_step"
    }
  }
}
node {
  name: "global_step/IsInitialized/VarIsInitializedOp"
  op: "VarIsInitializedOp"
  input: "global_step"
  attr {
    key: "_output_shapes"
    value {
      list {
        shape {
        }
      }
    }
  }
}
node {
  name: "global_step/Assign"
  op: "AssignVariableOp"
  input: "global_step"
  input: "global_step/Initializer/zeros"
  attr {
    key: "dtype"
    value {
      type: DT_INT64
    }
  }
  attr {
    key: "validate_shape"
    value {
      b: false
    }
  }
}
node {
  name: "global_step/Read/ReadVariableOp"
  op: "ReadVariableOp"
  input: "global_step"
  attr {
    key: "_output_shapes"
    value {
      list {
        shape {
        }
      }
    }
  }
  attr {
    key: "dtype"
    value {
      type: DT_INT64
    }
  }
}
node {
  name: "global_step/VarIsInitializedOp"
  op: "VarIsInitializedOp"
  input: "global_step"
  attr {
    key: "_output_shapes"
    value {
      list {
        shape {
        }
      }
    }
  }
}
node {
  name: "global_step/cond"
  op: "If"
  input: "global_step/VarIsInitializedOp"
  input: "global_step"
  input: "global_step/Initializer/zeros"
  attr {
    key: "Tcond"
    value {
      type: DT_BOOL
    }
  }
  attr {
    key: "Tin"
    value {
      list {
        type: DT_RESOURCE
        type: DT_INT64
      }
    }
  }
  attr {
    key: "Tout"
    value {
      list {
        type: DT_INT64
      }
    }
  }
  attr {
    key: "_lower_using_switch_merge"
    value {
      b: true
    }
  }
  attr {
    key: "_output_shapes"
    value {
      list {
        shape {
        }
      }
    }
  }
  attr {
    key: "_read_only_resource_inputs"
    value {
      list {
        i: 1
      }
    }
  }
  attr {
    key: "else_branch"
    value {
      func {
        name: "global_step_cond_false_4329"
      }
    }
  }
  attr {
    key: "output_shapes"
    value {
      list {
        shape {
        }
      }
    }
  }
  attr {
    key: "then_branch"
    value {
      func {
        name: "global_step_cond_true_4328"
      }
    }
  }
}
node {
  name: "global_step/cond/Identity"
  op: "Identity"
  input: "global_step/cond"
  attr {
    key: "T"
    value {
      type: DT_INT64
    }
  }
  attr {
    key: "_output_shapes"
    value {
      list {
        shape {
        }
      }
    }
  }
}
node {
  name: "global_step/add/y"
  op: "Const"
  attr {
    key: "_output_shapes"
    value {
      list {
        shape {
        }
      }
    }
  }
  attr {
    key: "dtype"
    value {
      type: DT_INT64
    }
  }
  attr {
    key: "value"
    value {
      tensor {
        dtype: DT_INT64
        tensor_shape {
        }
        int64_val: 0
      }
    }
  }
}
node {
  name: "global_step/add"
  op: "AddV2"
  input: "global_step/cond/Identity"
  input: "global_step/add/y"
  attr {
    key: "T"
    value {
      type: DT_INT64
    }
  }
  attr {
    key: "_output_shapes"
    value {
      list {
        shape {
        }
      }
    }
  }
}
node {
  name: "normalize_element/component_0"
  op: "Const"
  device: "/device:CPU:0"
  attr {
    key: "_output_shapes"
    value {
      list {
        shape {
          dim {
            size: 313
          }
        }
      }
    }
  }
  attr {
    key: "dtype"
    value {
      type: DT_DOUBLE
    }
  }
  attr {
    key: "value"
    value {
      tensor {
        dtype: DT_DOUBLE
        tensor_shape {
          dim {
            size: 313
          }
        }
        tensor_content: "\331\302\365\355\220\343Z\277\342\367\305\244\371\225\361?\001!\234gc\256\322?\037\336\212\210:U\320?4pxQ$\252\341\277\330NF!Y\236\373\277\363h\032q*\362\241?\337\365\232\017v\\\346\277\245\311f\252\001\213\320\277\005\352\022L\330X\363?(\000\255~\222A\346?\245\311f\252\001\213\320\277\342c\255F\214\007\325?z\014x\211*\344\322\277%\3324^3\342\351\277J\273p\n\346\256\370\277VQ\264\375\326v\360\277%K\0271\\\302\273?\331\302\365\355\220\343Z\277\254\246\276%\265`\327?z\014x\211*\344\322\277\005\352\022L\330X\363?\2738\254\356\236\265\350\277%K\0271\\\302\273?\251\310\340\033\rM\355?\267\355A<\3254\263\277\342c\255F\214\007\325?\014\331\001Q\254b\340?\333,$+\001\262\365?%\3324^3\342\351\277wV=5ei\360?p\213\233\273l\205\364?K\316\254\232\225\336\366?%K\0271\\\302\273?\223}\350bKH\366?\300\204\3432Y6\002\300%K\0271\\\302\273?%\3324^3\342\351\277A\001\340\213\031\301\357\277\237\r\253\226\261c\314\277\333,$+\001\262\365?\353H\202?\212\034\n@\334\027\275\005\316H\334\277\2738\254\356\236\265\350\277\364\207\210\330_\261\307\277J\273p\n\346\256\370\277\001\215\312\014\362\341\006@\366S\317X\347\220\373?\013\242x5!\r\361\2778o\362\302/l\336?\031F\034\000\306S\375?2\002f\032\016\377\302\277a\200N\242\017\021\003@.\224\305\334\377\317\362\2778o\362\302/l\336?\001!\234gc\256\322?\334\027\275\005\316H\334\277\245\311f\252\001\213\320\277z\014x\211*\344\322\277\330NF!Y\236\373\277\267\355A<\3254\263\277wV=5ei\360?\334\027\275\005\316H\334\277\n\263\2110M\003\344\277N\030\271I\314%\005\300\245\311f\252\001\213\320\277\267\355A<\3254\263\277\n\263\2110M\003\344\277\274\'\233\363r\277\365\277.\224\305\334\377\317\362\277\267^$\017\376\024\345?Q\206\022\204\336\222\364\277%\3324^3\342\351\277J\273p\n\346\256\370\277%K\0271\\\302\273?\005\352\022L\330X\363?\334\027\275\005\316H\334\2771\222\232G|\226\327\277\267\355A<\3254\263\277\274\'\233\363r\277\365\277\"\376\201\351\016\010\373\277\037\336\212\210:U\320?\267\355A<\3254\263\277A\001\340\213\031\301\357\277\342\033\0230\325\273\342?k\276\316\254\360g\355\277\317?\322\264\270]\262?\245\311f\252\001\213\320\277\367\336\3052{\344\001@%K\0271\\\302\273?\267\355A<\3254\263\277%\3324^3\342\351\277\363h\032q*\362\241?\334\027\275\005\316H\334\277\037\336\212\210:U\320?J\273p\n\346\256\370\277\256\244\223\2201\'\374?k\276\316\254\360g\355\277<8i\247\244\026\377?\334\027\275\005\316H\334\277%\3324^3\342\351\277.\224\305\334\377\317\362\277\215\2415\356&n\347?\237\021\001\301\270\326\342\277\223}\350bKH\366?V,\341\343\006\023\334?%\3324^3\342\351\277%K\0271\\\302\273?\342\033\0230\325\273\342?A\001\340\213\031\301\357\277\372\272x\247\237\276\000\3000\247\001m\257\377\360?\001!\234gc\256\322?\376B\276]\273\232\350?\232\266\343\026V\231\001@\342\367\305\244\371\225\361?wV=5ei\360?\n\263\2110M\003\344\277\256\244\223\2201\'\374?\363h\032q*\362\241?A\001\340\213\031\301\357\277PO\211hS=\325\277\n\263\2110M\003\344\277h\300\371At\241\370?\331\302\365\355\220\343Z\277\267\355A<\3254\263\277\220{\275\315\307\016\353\277\267\355A<\3254\263\277U+\256\326\177\223\302?%\3324^3\342\351\277%\3324^3\342\351\277\001!\234gc\256\322?\245\311f\252\001\213\320\277P\227#\177\n\211\347\277\330NF!Y\236\373\2770\247\001m\257\377\360?\377\0135B0E\371\277\363h\032q*\362\241?\334\027\275\005\316H\334\277tT\022\240\341/\345\277\323\205\317<\344\363\352?\005\352\022L\330X\363?k\276\316\254\360g\355\277wV=5ei\360?\345e\037\337\013\003\001@\334\027\275\005\316H\334\277\267\355A<\3254\263\277\334\027\275\005\316H\334\277.\224\305\334\377\317\362\277k\276\316\254\360g\355\277A\001\340\213\031\301\357\277\334\027\275\005\316H\334\277<8i\247\244\026\377?\274\'\233\363r\277\365\277.\224\305\334\377\317\362\277\323\205\317<\344\363\352?\351\260\320\224\321E\307?(\000\255~\222A\346?%K\0271\\\302\273?\245\311f\252\001\213\320\277\351\260\320\224\321E\307?tT\022\240\341/\345\2772\002f\032\016\377\302\277\331\302\365\355\220\343Z\277\n\263\2110M\003\344\277G\275\233\237i\350\343?\223}\350bKH\366?\245\311f\252\001\213\320\277yC\001\245\2659\362\277\001!\234gc\256\322?\251\310\340\033\rM\355?yC\001\245\2659\362\277\274\'\233\363r\277\365\277\013\242x5!\r\361\277\342\033\0230\325\273\342?\334\027\275\005\316H\334\277D\'X\254x \354?\267\355A<\3254\263\277\267\355A<\3254\263\277\267\355A<\3254\263\277p\213\233\273l\205\364?\364\207\210\330_\261\307\277V,\341\343\006\023\334?\323\205\317<\344\363\352?A\001\340\213\031\301\357\277\n\263\2110M\003\344\277\331a\202\261\010\316\371?\001!\234gc\256\322?\037\336\212\210:U\320?\005\352\022L\330X\363?8o\362\302/l\336?\010Xl\206\352\305\002@<8i\247\244\026\377?z\014x\211*\344\322\277\262Z\316\344\366\241\336\277.\224\305\334\377\317\362\277\005\352\022L\330X\363?8o\362\302/l\336?\220{\275\315\307\016\353\277\001!\234gc\256\322?\330NF!Y\236\373\277a\200N\242\017\021\003@\267\355A<\3254\263\277\267\355A<\3254\263\2778o\362\302/l\336?<8i\247\244\026\377?b\344F\315O\307\351?\372\272x\247\237\276\000\300\254\246\276%\265`\327?\001!\234gc\256\322?\007\327\326\273()\365\277\013\242x5!\r\361\2778o\362\302/l\336?z\014x\211*\344\322\277\267\355A<\3254\263\277\031ji\213\241y\356?\267^$\017\376\024\345?\351\260\320\224\321E\307?\334\027\275\005\316H\334\277\376B\276]\273\232\350?\223}\350bKH\366?P\227#\177\n\211\347\277\303\304\371\177c\240\243\277%K\0271\\\302\273?z\014x\211*\344\322\277\330NF!Y\236\373\277\005\352\022L\330X\363?m\255\275\261\304q\372\277\r\371\206\270x\231\274\277\237\r\253\226\261c\314\277\215\2415\356&n\347?%K\0271\\\302\273?V,\341\343\006\023\334?1\222\232G|\226\327\277\334\027\275\005\316H\334\277\n\263\2110M\003\344\277\262Z\316\344\366\241\336\277\037\336\212\210:U\320?\334\027\275\005\316H\334\277\334\027\275\005\316H\334\277\005\352\022L\330X\363?\323\205\317<\344\363\352?1\222\232G|\226\327\277\304\316\357\341\217}\340\277%\3324^3\342\351\2778o\362\302/l\336?\001!\234gc\256\322?\262Z\316\344\366\241\336\277\n\263\2110M\003\344\277\251\310\340\033\rM\355?8o\362\302/l\336?4pxQ$\252\341\2774pxQ$\252\341\2770\247\001m\257\377\360?A\001\340\213\031\301\357\277\223}\350bKH\366?\342c\255F\214\007\325?\005\352\022L\330X\363?\n\263\2110M\003\344\277G\275\233\237i\350\343?A\001\340\213\031\301\357\277\267\355A<\3254\263\277\240\231Fw\324\262\n@\001!\234gc\256\322?\262Z\316\344\366\241\336\277\232H\212\334C,\362?\245\311f\252\001\213\320\277\323\205\317<\344\363\352?\274\'\233\363r\277\365\277\342\033\0230\325\273\342?\274\'\233\363r\277\365\277K\316\254\232\225\336\366?\n\263\2110M\003\344\277\334\027\275\005\316H\334\277\267\355A<\3254\263\277\n\263\2110M\003\344\277\300\204\3432Y6\002\300\323\205\317<\344\363\352?0\247\001m\257\377\360?\001!\234gc\256\322?\254\246\276%\265`\327?\267\355A<\3254\263\277J\273p\n\346\256\370\277\331a\202\261\010\316\371?\267^$\017\376\024\345?\267^$\017\376\024\345?\364\207\210\330_\261\307\277N\030\271I\314%\005\300\334\027\275\005\316H\334\277A\001\340\213\031\301\357\277PO\211hS=\325\277%\3324^3\342\351\277PO\211hS=\325\277%\3324^3\342\351\277\223}\350bKH\366?\334\027\275\005\316H\334\277\363h\032q*\362\241?\337\365\232\017v\\\346\277qz\212\300@\217\341?z\014x\211*\344\322\277%\3324^3\342\351\277\251\310\340\033\rM\355?\037\336\212\210:U\320?.\224\305\334\377\317\362\277<8i\247\244\026\377?\334\027\275\005\316H\334\277\037\336\212\210:U\320?\001!\234gc\256\322?\037\336\212\210:U\320?qz\212\300@\217\341?\n\263\2110M\003\344\2778o\362\302/l\336?\274\'\233\363r\277\365\277"
      }
    }
  }
}
node {
  name: "normalize_element/component_1"
  op: "Const"
  device: "/device:CPU:0"
  attr {
    key: "_output_shapes"
    value {
      list {
        shape {
          dim {
            size: 313
          }
        }
      }
    }
  }
  attr {
    key: "dtype"
    value {
      type: DT_DOUBLE
    }
  }
  attr {
    key: "value"
    value {
      tensor {
        dtype: DT_DOUBLE
        tensor_shape {
          dim {
            size: 313
          }
        }
        tensor_content: "#\013\372B\260`\352\277\272\025\021$\334x\326?#\013\372B\260`\352\277#\013\372B\260`\352\277#\013\372B\260`\352\277o\220\2053\306l\370?\272\025\021$\334x\326?#\013\372B\260`\352\277#\013\372B\260`\352\277#\013\372B\260`\352\277\272\025\021$\334x\326?#\013\372B\260`\352\277\272\025\021$\334x\326?o\220\2053\306l\370?o\220\2053\306l\370?o\220\2053\306l\370?\272\025\021$\334x\326?o\220\2053\306l\370?#\013\372B\260`\352\277\272\025\021$\334x\326?o\220\2053\306l\370?#\013\372B\260`\352\277#\013\372B\260`\352\277\272\025\021$\334x\326?#\013\372B\260`\352\277#\013\372B\260`\352\277#\013\372B\260`\352\277\272\025\021$\334x\326?#\013\372B\260`\352\277o\220\2053\306l\370?\272\025\021$\334x\326?#\013\372B\260`\352\277\272\025\021$\334x\326?#\013\372B\260`\352\277#\013\372B\260`\352\277o\220\2053\306l\370?#\013\372B\260`\352\277o\220\2053\306l\370?o\220\2053\306l\370?#\013\372B\260`\352\277#\013\372B\260`\352\277#\013\372B\260`\352\277#\013\372B\260`\352\277\272\025\021$\334x\326?#\013\372B\260`\352\277o\220\2053\306l\370?#\013\372B\260`\352\277#\013\372B\260`\352\277o\220\2053\306l\370?#\013\372B\260`\352\277#\013\372B\260`\352\277#\013\372B\260`\352\277o\220\2053\306l\370?o\220\2053\306l\370?\272\025\021$\334x\326?\272\025\021$\334x\326?o\220\2053\306l\370?#\013\372B\260`\352\277#\013\372B\260`\352\277o\220\2053\306l\370?o\220\2053\306l\370?#\013\372B\260`\352\277#\013\372B\260`\352\277\272\025\021$\334x\326?o\220\2053\306l\370?#\013\372B\260`\352\277\272\025\021$\334x\326?#\013\372B\260`\352\277o\220\2053\306l\370?o\220\2053\306l\370?#\013\372B\260`\352\277#\013\372B\260`\352\277\022\253\275\266\237\227\366\277o\220\2053\306l\370?\272\025\021$\334x\326?o\220\2053\306l\370?#\013\372B\260`\352\277#\013\372B\260`\352\277#\013\372B\260`\352\277o\220\2053\306l\370?o\220\2053\306l\370?\272\025\021$\334x\326?\272\025\021$\334x\326?o\220\2053\306l\370?#\013\372B\260`\352\277o\220\2053\306l\370?\214\000\343a\204H\316\277#\013\372B\260`\352\277#\013\372B\260`\352\277\272\025\021$\334x\326?\272\025\021$\334x\326?\022\253\275\266\237\227\366\277#\013\372B\260`\352\277o\220\2053\306l\370?#\013\372B\260`\352\277o\220\2053\306l\370?#\013\372B\260`\352\277o\220\2053\306l\370?\272\025\021$\334x\326?#\013\372B\260`\352\277\272\025\021$\334x\326?\022\253\275\266\237\227\366\277\272\025\021$\334x\326?#\013\372B\260`\352\277#\013\372B\260`\352\277#\013\372B\260`\352\277#\013\372B\260`\352\277#\013\372B\260`\352\277#\013\372B\260`\352\277o\220\2053\306l\370?o\220\2053\306l\370?#\013\372B\260`\352\277\272\025\021$\334x\326?#\013\372B\260`\352\277#\013\372B\260`\352\277\272\025\021$\334x\326?o\220\2053\306l\370?#\013\372B\260`\352\277#\013\372B\260`\352\277\272\025\021$\334x\326?\272\025\021$\334x\326?#\013\372B\260`\352\277#\013\372B\260`\352\277\214\000\343a\204H\316\277#\013\372B\260`\352\277\272\025\021$\334x\326?\272\025\021$\334x\326?\272\025\021$\334x\326?#\013\372B\260`\352\277o\220\2053\306l\370?o\220\2053\306l\370?#\013\372B\260`\352\277\272\025\021$\334x\326?o\220\2053\306l\370?o\220\2053\306l\370?#\013\372B\260`\352\277\272\025\021$\334x\326?\272\025\021$\334x\326?#\013\372B\260`\352\277#\013\372B\260`\352\277#\013\372B\260`\352\277#\013\372B\260`\352\277o\220\2053\306l\370?#\013\372B\260`\352\277#\013\372B\260`\352\277\272\025\021$\334x\326?#\013\372B\260`\352\277#\013\372B\260`\352\277o\220\2053\306l\370?#\013\372B\260`\352\277o\220\2053\306l\370?#\013\372B\260`\352\277#\013\372B\260`\352\277o\220\2053\306l\370?o\220\2053\306l\370?#\013\372B\260`\352\277\272\025\021$\334x\326?#\013\372B\260`\352\277o\220\2053\306l\370?\272\025\021$\334x\326?#\013\372B\260`\352\277o\220\2053\306l\370?#\013\372B\260`\352\277#\013\372B\260`\352\277o\220\2053\306l\370?o\220\2053\306l\370?#\013\372B\260`\352\277o\220\2053\306l\370?\272\025\021$\334x\326?#\013\372B\260`\352\277#\013\372B\260`\352\277\272\025\021$\334x\326?o\220\2053\306l\370?o\220\2053\306l\370?#\013\372B\260`\352\277#\013\372B\260`\352\277#\013\372B\260`\352\277#\013\372B\260`\352\277#\013\372B\260`\352\277#\013\372B\260`\352\277#\013\372B\260`\352\277o\220\2053\306l\370?#\013\372B\260`\352\277\272\025\021$\334x\326?o\220\2053\306l\370?#\013\372B\260`\352\277\214\000\343a\204H\316\277#\013\372B\260`\352\277#\013\372B\260`\352\277#\013\372B\260`\352\277#\013\372B\260`\352\277#\013\372B\260`\352\277\272\025\021$\334x\326?#\013\372B\260`\352\277#\013\372B\260`\352\277o\220\2053\306l\370?o\220\2053\306l\370?#\013\372B\260`\352\277o\220\2053\306l\370?#\013\372B\260`\352\277o\220\2053\306l\370?#\013\372B\260`\352\277#\013\372B\260`\352\277#\013\372B\260`\352\277#\013\372B\260`\352\277\272\025\021$\334x\326?#\013\372B\260`\352\277o\220\2053\306l\370?#\013\372B\260`\352\277\272\025\021$\334x\326?o\220\2053\306l\370?#\013\372B\260`\352\277#\013\372B\260`\352\277#\013\372B\260`\352\277\272\025\021$\334x\326?#\013\372B\260`\352\277#\013\372B\260`\352\277#\013\372B\260`\352\277#\013\372B\260`\352\277\272\025\021$\334x\326?#\013\372B\260`\352\277o\220\2053\306l\370?#\013\372B\260`\352\277#\013\372B\260`\352\277#\013\372B\260`\352\277o\220\2053\306l\370?#\013\372B\260`\352\277o\220\2053\306l\370?#\013\372B\260`\352\277\272\025\021$\334x\326?#\013\372B\260`\352\277\272\025\021$\334x\326?#\013\372B\260`\352\277#\013\372B\260`\352\277\272\025\021$\334x\326?o\220\2053\306l\370?#\013\372B\260`\352\277\272\025\021$\334x\326?o\220\2053\306l\370?\272\025\021$\334x\326?#\013\372B\260`\352\277#\013\372B\260`\352\277#\013\372B\260`\352\277o\220\2053\306l\370?o\220\2053\306l\370?#\013\372B\260`\352\277#\013\372B\260`\352\277#\013\372B\260`\352\277o\220\2053\306l\370?\272\025\021$\334x\326?\272\025\021$\334x\326?#\013\372B\260`\352\277#\013\372B\260`\352\277#\013\372B\260`\352\277o\220\2053\306l\370?\272\025\021$\334x\326?\272\025\021$\334x\326?\272\025\021$\334x\326?o\220\2053\306l\370?#\013\372B\260`\352\277o\220\2053\306l\370?\272\025\021$\334x\326?#\013\372B\260`\352\277#\013\372B\260`\352\277#\013\372B\260`\352\277#\013\372B\260`\352\277o\220\2053\306l\370?#\013\372B\260`\352\277o\220\2053\306l\370?#\013\372B\260`\352\277o\220\2053\306l\370?#\013\372B\260`\352\277#\013\372B\260`\352\277#\013\372B\260`\352\277#\013\372B\260`\352\277#\013\372B\260`\352\277o\220\2053\306l\370?#\013\372B\260`\352\277#\013\372B\260`\352\277#\013\372B\260`\352\277\272\025\021$\334x\326?#\013\372B\260`\352\277o\220\2053\306l\370?#\013\372B\260`\352\277#\013\372B\260`\352\277#\013\372B\260`\352\277#\013\372B\260`\352\277o\220\2053\306l\370?#\013\372B\260`\352\277o\220\2053\306l\370?#\013\372B\260`\352\277\022\253\275\266\237\227\366\277#\013\372B\260`\352\277o\220\2053\306l\370?#\013\372B\260`\352\277o\220\2053\306l\370?\272\025\021$\334x\326?\272\025\021$\334x\326?\272\025\021$\334x\326?#\013\372B\260`\352\277#\013\372B\260`\352\277\272\025\021$\334x\326?#\013\372B\260`\352\277o\220\2053\306l\370?#\013\372B\260`\352\277#\013\372B\260`\352\277#\013\372B\260`\352\277\272\025\021$\334x\326?#\013\372B\260`\352\277\272\025\021$\334x\326?o\220\2053\306l\370?#\013\372B\260`\352\277o\220\2053\306l\370?"
      }
    }
  }
}
node {
  name: "normalize_element/component_2"
  op: "Const"
  device: "/device:CPU:0"
  attr {
    key: "_output_shapes"
    value {
      list {
        shape {
          dim {
            size: 313
          }
        }
      }
    }
  }
  attr {
    key: "dtype"
    value {
      type: DT_DOUBLE
    }
  }
  attr {
    key: "value"
    value {
      tensor {
        dtype: DT_DOUBLE
        tensor_shape {
          dim {
            size: 313
          }
        }
        tensor_content: "\031\275\342\213P\375\340\277\325m\340I\266\036\326?Y\020\323=^\205\354\277>e\304;e!\360\277o\016)\034\337V\352\277xR\026W.\221\372?\367\'\226\203\"\334\331?B\022}_\335\263\356\277\354\3006\317NZ\345\2772f\231\314\2448\361\277h\356\254e\315%\272?Y\020\323=^\205\354\277\325m\340I\266\036\326?\371%\237\313h\207\361?\273L\030\362\260\005\364?\315d\200\276\342\250\002@\003\024\215T\347\225\304\277\371%\237\313h\207\361?\354\3006\317NZ\345\277h\356\254e\315%\272?>\232\n?A\002\371?15\242B\'\325\354\277\277\t\256\347\306\334\336\277\250q4\215\264{\332?15\242B\'\325\354\277%yB\347;\351\346\277Y\020\323=^\205\354\277h\356\254e\315%\272?\236\370\000O\211`\361\277\253,r\301%*\371?\010\320*\235\374\331\342?\252\367+\276II\360\277M\231\226\267\354\276\333\277B\022}_\335\263\356\277\277\t\256\347\306\334\336\277\256\231\242[qf\000@+\337\340}\200\001\330\277*\212\340\326h\227\346?\253,r\301%*\371?\024\234g\312\205\n\345\277\234\n\325\330\340\371\345\27715\242B\'\325\354\27715\242B\'\325\354\277\346ju\n\250\206\320\277>e\304;e!\360\277\322Jn\3201\327\361?15\242B\'\325\354\277\017\300\017\3364=\336\277\253,r\301%*\371?\234\n\325\330\340\371\345\277Y\020\323=^\205\354\277o\016)\034\337V\352\277z@B\315\326\367\345?\273L\030\362\260\005\364?\010\320*\235\374\331\342?\345\240\272\030=)\265?\253,r\301%*\371?\255\347\257\365\226\330\347\277\234\n\325\330\340\371\345\277>\232\n?A\002\371?\322Jn\3201\327\361?\024\234g\312\205\n\345\277\313\200\352m8\243\357\277i\270gW8\203\325\277#{9\237\365=\377?\375\235\021\354\0049\347\277\247\3073?\205\247\267?\0327Ld\246\003\357\277\026\002\245W\337N\362?>\232\n?A\002\371?B\022}_\335\263\356\27715\242B\'\325\354\277\377\213=b\255\237\362\277\256\231\242[qf\000@\325m\340I\266\036\326?>\232\n?A\002\371?\277\304\212\022M\267\351\277o\016)\034\337V\352\277\0327Ld\246\003\357\277\256\231\242[qf\000@\256\231\242[qf\000@\010\320*\235\374\331\342?\271n\311M\246\343\324\277\273L\030\362\260\005\364?+\337\340}\200\001\330\277\253,r\301%*\371?zP\037\237t<\342\277\304\345\005\324\027\252\345\277\235O\370\255Z\037\333\277\345\240\272\030=)\265?\010\320*\235\374\331\342?\377\213=b\255\237\362\277\277\t\256\347\306\334\336\277>\232\n?A\002\371?\277\t\256\347\306\334\336\277\256\231\242[qf\000@15\242B\'\325\354\277\273L\030\362\260\005\364?\367\'\226\203\"\334\331?o\016)\034\337V\352\277\311\366\243\303DX\345?\377\213=b\255\237\362\277\325m\340I\266\036\326?15\242B\'\325\354\277\277\t\256\347\306\334\336\2772f\231\314\2448\361\277\361\341\261\220\031M\341\277\024\234g\312\205\n\345\277Y\020\323=^\205\354\277>\232\n?A\002\371?K\324\302]}\257\004@\304\345\005\324\027\252\345\277\010\320*\235\374\331\342?15\242B\'\325\354\277\0327Ld\246\003\357\277\325m\340I\266\036\326?\322Jn\3201\327\361?\255\347\257\365\226\330\347\277B\022}_\335\263\356\277\367\'\226\203\"\334\331?\250q4\215\264{\332?\361\341\261\220\031M\341\277\024\234g\312\205\n\345\277\354\3006\317NZ\345\277B\022}_\335\263\356\277\325m\340I\266\036\326?\367\'\226\203\"\334\331?\010\320*\235\374\331\342?ZA\312\307\333\350\360\277\273L\030\362\260\005\364?\253,r\301%*\371?\024\234g\312\205\n\345\277\010\320*\235\374\331\342?\273L\030\362\260\005\364?\315d\200\276\342\250\002@\252\367+\276II\360\277\347\364\273\264\233\321\312\277\346ju\n\250\206\320\277\304\345\005\324\027\252\345\277\376\3424\301~^\334\277\206\014\177\372_(\350\277\277\t\256\347\306\334\336\277\273L\030\362\260\005\364?\277\t\256\347\306\334\336\277\0327Ld\246\003\357\277\010\320*\235\374\331\342?Y\020\323=^\205\354\277\354\3006\317NZ\345\277>\335\325R\026\377\361?o\016)\034\337V\352\277\273L\030\362\260\005\364?\277\304\212\022M\267\351\27715\242B\'\325\354\277\371%\237\313h\207\361?\256\231\242[qf\000@\'gn]\344O\362\277\010\320*\235\374\331\342?+\337\340}\200\001\330\277\371%\237\313h\207\361?\247\3073?\205\247\267?\206\014\177\372_(\350\277\322Jn\3201\327\361?\320\241e/\003\226\353\277Ru\356\243=\214\342\277\371%\237\313h\207\361?>\232\n?A\002\371?\327\260\014gv\357\362\277\371%\237\313h\207\361?\347\364\273\264\233\321\312\277w\035\320SR\260\361\277B\022}_\335\263\356\277\003\024\215T\347\225\304\277>\232\n?A\002\371?\371%\237\313h\207\361?\363[\033ioS\357\27715\242B\'\325\354\277\277\t\256\347\306\334\336\277\024\234g\312\205\n\345\277\255\347\257\365\226\330\347\277Y\020\323=^\205\354\277\252\367+\276II\360\277\273L\030\362\260\005\364?%yB\347;\351\346\277\010\320*\235\374\331\342?>\232\n?A\002\371?\325\302\340\360\315\210\347\277u\244^(\375<\260\277\0327Ld\246\003\357\277>e\304;e!\360\27715\242B\'\325\354\277\304\345\005\324\027\252\345\277Y\020\323=^\205\354\277\010\320*\235\374\331\342?\277\t\256\347\306\334\336\277\271n\311M\246\343\324\277\256\231\242[qf\000@z@B\315\326\367\345?\277\t\256\347\306\334\336\277\371%\237\313h\207\361?\024\234g\312\205\n\345\277K\324\302]}\257\004@\252\367+\276II\360\2772f\231\314\2448\361\277\346\237\273\r\204g\351\277\252\367+\276II\360\277\010\320*\235\374\331\342?>e\304;e!\360\277.zd\016\266&\376?\271n\311M\246\343\324\277\325m\340I\266\036\326?>\232\n?A\002\371?\354\3006\317NZ\345\277\305\242:\300B\255\354\277o\016)\034\337V\352\277\250q4\215\264{\332?\304\345\005\324\027\252\345\2776V\035\004\362\307\350\277Y\020\323=^\205\354\277\354\3006\317NZ\345\277\311\366\243\303DX\345?\304\345\005\324\027\252\345\277\273L\030\362\260\005\364?\277\t\256\347\306\334\336\2772f\231\314\2448\361\277o\016)\034\337V\352\277\273L\030\362\260\005\364?\223\371\325\337\310w\362\277\371%\237\313h\207\361?\277\t\256\347\306\334\336\277\311\366\243\303DX\345?Y\020\323=^\205\354\277\010\320*\235\374\331\342?\346\237\273\r\204g\351\277B\022}_\335\263\356\277\010\320*\235\374\331\342?\273L\030\362\260\005\364?Y\020\323=^\205\354\277\370\361Pu\2159\265\277\371%\237\313h\207\361?\235O\370\255Z\037\333\277\202\034\373\302\022\231\360\27715\242B\'\325\354\277\234\n\325\330\340\371\345\277\253,r\301%*\371?\273L\030\362\260\005\364?\277\t\256\347\306\334\336\27715\242B\'\325\354\277\277\304\212\022M\267\351\277>\232\n?A\002\371?h\356\254e\315%\272?\010\320*\235\374\331\342?\0327Ld\246\003\357\277\361\341\261\220\031M\341\277\206\014\177\372_(\350\277xR\026W.\221\372?\010\320*\235\374\331\342?\325m\340I\266\036\326?\010\320*\235\374\331\342?xR\026W.\221\372?B\022}_\335\263\356\277\253,r\301%*\371?\345\240\272\030=)\265?\017\300\017\3364=\336\277\346\237\273\r\204g\351\277\271n\311M\246\343\324\277\363[\033ioS\357\277\026\002\245W\337N\362?\354\3006\317NZ\345\277\256\231\242[qf\000@\277\t\256\347\306\334\336\277\322Jn\3201\327\361?\206\014\177\372_(\350\277%yB\347;\351\346\277\271n\311M\246\343\324\277\277\t\256\347\306\334\336\277\354\3006\317NZ\345\277\256\231\242[qf\000@+\337\340}\200\001\330\2772f\231\314\2448\361\277Y\020\323=^\205\354\277\347\364\273\264\233\321\312\277\361\341\261\220\031M\341\277>\232\n?A\002\371?+\337\340}\200\001\330\277G3\370 \250\246\352\277\304\345\005\324\027\252\345\277\346\237\273\r\204g\351\277 \n\272\213K\204\003@15\242B\'\325\354\277>\232\n?A\002\371?\234\n\325\330\340\371\345\277\306\3231J\300\020\361\277^1N\377(x\350\277>\232\n?A\002\371?2f\231\314\2448\361\277\273L\030\362\260\005\364?h\356\254e\315%\272?\235O\370\255Z\037\333\277\325m\340I\266\036\326?\363[\033ioS\357\277\354\3006\317NZ\345\277\250q4\215\264{\332?15\242B\'\325\354\277\322Jn\3201\327\361?\223\371\325\337\310w\362\277\0327Ld\246\003\357\277+\337\340}\200\001\330\277\325m\340I\266\036\326?15\242B\'\325\354\277\250q4\215\264{\332?\026\002\245W\337N\362?Y\020\323=^\205\354\277>\232\n?A\002\371?"
      }
    }
  }
}
node {
  name: "normalize_element/component_3"
  op: "Const"
  device: "/device:CPU:0"
  attr {
    key: "_output_shapes"
    value {
      list {
        shape {
          dim {
            size: 313
          }
        }
      }
    }
  }
  attr {
    key: "dtype"
    value {
      type: DT_DOUBLE
    }
  }
  attr {
    key: "value"
    value {
      tensor {
        dtype: DT_DOUBLE
        tensor_shape {
          dim {
            size: 313
          }
        }
        tensor_content: "\265\223\020\236\036\363\337\277H3\353;\326\335\307?\341@\222W\231\321\340\277\254\317\242\370&\001\360\277\035\360k\244\363i\350\277\300B\001\335\000i\376?H3\353;\326\335\307?K\2611\3409R\356\277\365%0q\267Y\343\277K\2611\3409R\356\277\356.\246h\255\201\342\277\365%0q\267Y\343\277\250\245\374\214\nC\336\277V\031\3029>\330\346?\332\32279\330\226\006@\306\355\231\037\272\016\004@\346?YsO_\324?\231\277%\217\242H\357?\346?YsO_\324?\250\245\374\214\nC\336\277~\234\235\207\234\370\365?\200\333\300Y\3162\331\277*\336\177\265\007\032\352\277\203\313F3v\307\263\277\026\371\341\233\351\221\347\277\026\371\341\233\351\221\347\277E\272\247\327/z\355\277\200\333\300Y\3162\331\277W\225#0h}\365\277w\245\023\177\222 \365?\014\233\217D6\364\253?\254\317\242\370&\001\360\277\020\002X\223\337\271\346\277E\272\247\327/z\355\277e\377\2307\246\322\325\277\356\262Dr\203\334\363?e\377\2307\246\322\325\277H3\353;\326\335\307?\010\217l\224\253<\367?\200\333\300Y\3162\331\277\3507\034`\243\251\341\277W\225#0h}\365\277\200\333\300Y\3162\331\2775F\020\017\014\240\342?\254\317\242\370&\001\360\277\356\262Dr\203\334\363?Q\236\231\'^\245\364\277\365%0q\267Y\343\277\364\251\316z\215\264\364?\021\372\032\2003\004\304\277\254\317\242\370&\001\360\277\035\360k\244\363i\350\277e\377\2307\246\322\325\277\356\262Dr\203\334\363?\203\313F3v\307\263\277F\262j\304\203\304\312\277j\267\377m~p\363?F\262j\304\203\304\312\277\021\372\032\2003\004\304\277(\026-\371\214B\000@\356\262Dr\203\334\363?\250\245\374\214\nC\336\277\020\002X\223\337\271\346\277\360=\347\252\273z\273?\271\377\205\016\246^\002@F\262j\304\203\304\312\277\021\372\032\2003\004\304\2777\314\223\306\033\312\353\277V\031\3029>\330\346?(\026-\371\214B\000@\324\231\336+c\021\365\2771\325\t\276\021\362\352\277\021\372\032\2003\004\304\277\300B\001\335\000i\376?F\262j\304\203\304\312\277\014\233\217D6\364\253?\026\371\341\233\351\221\347\277\263\306,\0011\331\360\277\026\371\341\233\351\221\347\2770Y\250\307\347L\374?(\026-\371\214B\000@H3\353;\326\335\307?\023{\233\367\205\035\301?\356\262Dr\203\334\363?e\377\2307\246\322\325\277\214\321\021~\216\230\355?\376F\027j\246^^?\021\372\032\2003\004\304\277K\2611\3409R\356\277F\262j\304\203\304\312\277\203\313F3v\307\263\277e\377\2307\246\322\325\277s\355\254H\272\202\327\277\356\262Dr\203\334\363?K#q\025~r\322\2770Y\250\307\347L\374?kz\301I\206\005\370\277\231\277%\217\242H\357?H3\353;\326\335\307?\026\371\341\233\351\221\347\277H3\353;\326\335\307?\203\313F3v\307\263\277\203\313F3v\307\263\277\002\024D\202\313\t\345\277*\336\177\265\007\032\352\277C\260\205\026J\365\362\277,\326B\242[d\307\277\232\267\350{\366\222\334\2777\314\223\306\033\312\353\277\300B\001\335\000i\376?31=\331\375\300\t@\374\034\272y\3011\344\277\200\333\300Y\3162\331\277K\2611\3409R\356\277e\2037A|-\367\277e\377\2307\246\322\325\277\376x\355\224\255\000\003@F\262j\304\203\304\312\2777\314\223\306\033\312\353\277\014\233\217D6\364\253?\203\313F3v\307\263\277F\262j\304\203\304\312\277\232\267\350{\366\222\334\277K\2611\3409R\356\277K\2611\3409R\356\277\014\233\217D6\364\253?\237oO\262\3160\372?\200\333\300Y\3162\331\277=\271\373\r@\035\362\277\356\262Dr\203\334\363?\347\273\272iy\004\363?\365%0q\267Y\343\277\203\313F3v\307\263\277]\311\353\\j\300\361?W\327\3624\323*\006@7\314\223\306\033\312\353\277d\007\326JR\210\350?j\376_S\\`\351?\200\333\300Y\3162\331\277,\326B\242[d\307\277\200\333\300Y\3162\331\277*\336\177\265\007\032\352\277\356\262Dr\203\334\363?\002\024D\202\313\t\345\277e\2037A|-\367\277\200\333\300Y\3162\331\277e\377\2307\246\322\325\277\367\035\363]\013\244\300\277]\311\353\\j\300\361?7\314\223\306\033\312\353\277\356\262Dr\203\334\363?e\377\2307\246\322\325\277kz\301I\206\005\370\277P\"814\000\346?\271\377\205\016\246^\002@>\303\035\317%\242\354\277H3\353;\326\335\307?\250\245\374\214\nC\336\277\231\277%\217\242H\357?e\377\2307\246\322\325\277\250\245\374\214\nC\336\277(\346\274\310\263\317\334?\341@\222W\231\321\340\277dl\235\252V\033\231\277\231\277%\217\242H\357?5F\020\017\014\240\342?\341\207\362<w\301\366\277V\031\3029>\330\346?\363-m\204c\017\326?W\225#0h}\365\277E\272\247\327/z\355\277H3\353;\326\335\307?]\311\353\\j\300\361?\222\310\233\206\230p\356?6\302q\0056E\361\277\002\024D\202\313\t\345\277\200\333\300Y\3162\331\277,\326B\242[d\307\277F\262j\304\203\304\312\2777\314\223\306\033\312\353\277\254\317\242\370&\001\360\277x\354sdp\020\353?\356.\246h\255\201\342\277\203\313F3v\307\263\277]\311\353\\j\300\361?X\021\205&\222\"\324\277\t\013\316\212\325\341\345\2771\325\t\276\021\362\352\2770\313\347\374+m\360\277=\271\373\r@\035\362\277\200\333\300Y\3162\331\277=\271\373\r@\035\362\277\002\024D\202\313\t\345\277K#q\025~r\322\277\014\233\217D6\364\253?\246f\331\272\330\010\373?H3\353;\326\335\307?\026\371\341\233\351\221\347\277P\"814\000\346?\232\267\350{\366\222\334\27731=\331\375\300\t@W\225#0h}\365\277K\2611\3409R\356\277>5]\004j\302\320\2777\314\223\306\033\312\353\277*\336\177\265\007\032\352\277\254\317\242\370&\001\360\2770Y\250\307\347L\374?\014\233\217D6\364\253?\014\233\217D6\364\253?(\026-\371\214B\000@H3\353;\326\335\307?\365%0q\267Y\343\2777\314\223\306\033\312\353\277\203\313F3v\307\263\277\035\360k\244\363i\350\277\215\311\324j\342\342\332\277\254\317\242\370&\001\360\277}\353:\200&\236\316?F\262j\304\203\304\312\277\215\311\324j\342\342\332\277\231\277%\217\242H\357?\232\267\350{\366\222\334\277K\2611\3409R\356\277\263\306,\0011\331\360\277\356\262Dr\203\334\363?\254\317\242\370&\001\360\277\222\310\233\206\230p\356?\200\333\300Y\3162\331\277(\346\274\310\263\317\334?\374\034\272y\3011\344\277\014\233\217D6\364\253?7\314\223\306\033\312\353\277>\303\035\317%\242\354\277\014\233\217D6\364\253?\356\262Dr\203\334\363?R\250\273\350C*\357\277H3\353;\326\335\307?\205\332\207u\204\300\354?\021\372\032\2003\004\304\277\271\275\266\t;\261\361\277K\2611\3409R\356\277\021\372\032\2003\004\304\277\323\326\034P[|\360?\356\262Dr\203\334\363?\341@\222W\231\321\340\277\200\333\300Y\3162\331\277\026\371\341\233\351\221\347\277]\311\353\\j\300\361?\250\245\374\214\nC\336\277\203\313F3v\307\263\2777\314\223\306\033\312\353\277F\262j\304\203\304\312\277\200\333\300Y\3162\331\2770Y\250\307\347L\374?*\336\177\265\007\032\352\277H3\353;\326\335\307?\367\035\363]\013\244\300\277\243G\344\303\344\244\007@\324\231\336+c\021\365\277w\245\023\177\222 \365?F\262j\304\203\304\312\2771\325\t\276\021\362\352\277a\216\222\346\253$\316\277K#q\025~r\322\277=\271\373\r@\035\362\277J\351\336#\277z\004@\020\002X\223\337\271\346\277\300B\001\335\000i\376?\200\333\300Y\3162\331\277\356\262Dr\203\334\363?\200\333\300Y\3162\331\277e\377\2307\246\322\325\277K#q\025~r\322\277e\377\2307\246\322\325\277H3\353;\326\335\307?\373\245\351c\n\317\n@e\377\2307\246\322\325\277C\260\205\026J\365\362\277E\272\247\327/z\355\277(\346\274\310\263\317\334?e\377\2307\246\322\325\277\237oO\262\3160\372?e\377\2307\246\322\325\277F\262j\304\203\304\312\277\026\371\341\233\351\221\347\277\026\371\341\233\351\221\347\277\243G\344\303\344\244\007@\002\024D\202\313\t\345\277]\311\353\\j\300\361?\203\313F3v\307\263\277H3\353;\326\335\307?\365%0q\267Y\343\277\017\206\366\234\265\024\370?7\314\223\306\033\312\353\277\356\262Dr\203\334\363?\250\245\374\214\nC\336\277(\346\274\310\263\317\334?\203\313F3v\307\263\2771\325\t\276\021\362\352\277\346?YsO_\324?e\377\2307\246\322\325\277K\2611\3409R\356\277\356\262Dr\203\334\363?\254\317\242\370&\001\360\277\026\371\341\233\351\221\347\277\265\223\020\236\036\363\337\277\014\233\217D6\364\253?\026\371\341\233\351\221\347\277e\377\2307\246\322\325\277V\031\3029>\330\346?\263\306,\0011\331\360\277\237oO\262\3160\372?"
      }
    }
  }
}
node {
  name: "normalize_element/component_4"
  op: "Const"
  device: "/device:CPU:0"
  attr {
    key: "_output_shapes"
    value {
      list {
        shape {
          dim {
            size: 313
          }
        }
      }
    }
  }
  attr {
    key: "dtype"
    value {
      type: DT_INT64
    }
  }
  attr {
    key: "value"
    value {
      tensor {
        dtype: DT_INT64
        tensor_shape {
          dim {
            size: 313
          }
        }
        tensor_content: "Q\000\000\000\000\000\000\000N\000\000\000\000\000\000\000J\000\000\000\000\000\000\000P\000\000\000\000\000\000\000Q\000\000\000\000\000\000\000I\000\000\000\000\000\000\000Q\000\000\000\000\000\000\000P\000\000\000\000\000\000\000O\000\000\000\000\000\000\000J\000\000\000\000\000\000\000L\000\000\000\000\000\000\000H\000\000\000\000\000\000\000Q\000\000\000\000\000\000\000M\000\000\000\000\000\000\000F\000\000\000\000\000\000\000I\000\000\000\000\000\000\000O\000\000\000\000\000\000\000H\000\000\000\000\000\000\000N\000\000\000\000\000\000\000N\000\000\000\000\000\000\000O\000\000\000\000\000\000\000I\000\000\000\000\000\000\000L\000\000\000\000\000\000\000I\000\000\000\000\000\000\000M\000\000\000\000\000\000\000I\000\000\000\000\000\000\000N\000\000\000\000\000\000\000Q\000\000\000\000\000\000\000N\000\000\000\000\000\000\000G\000\000\000\000\000\000\000K\000\000\000\000\000\000\000O\000\000\000\000\000\000\000Q\000\000\000\000\000\000\000Q\000\000\000\000\000\000\000H\000\000\000\000\000\000\000F\000\000\000\000\000\000\000O\000\000\000\000\000\000\000K\000\000\000\000\000\000\000I\000\000\000\000\000\000\000P\000\000\000\000\000\000\000R\000\000\000\000\000\000\000R\000\000\000\000\000\000\000G\000\000\000\000\000\000\000N\000\000\000\000\000\000\000O\000\000\000\000\000\000\000I\000\000\000\000\000\000\000H\000\000\000\000\000\000\000Q\000\000\000\000\000\000\000L\000\000\000\000\000\000\000K\000\000\000\000\000\000\000Q\000\000\000\000\000\000\000R\000\000\000\000\000\000\000O\000\000\000\000\000\000\000I\000\000\000\000\000\000\000J\000\000\000\000\000\000\000J\000\000\000\000\000\000\000M\000\000\000\000\000\000\000F\000\000\000\000\000\000\000N\000\000\000\000\000\000\000I\000\000\000\000\000\000\000J\000\000\000\000\000\000\000I\000\000\000\000\000\000\000G\000\000\000\000\000\000\000I\000\000\000\000\000\000\000F\000\000\000\000\000\000\000K\000\000\000\000\000\000\000F\000\000\000\000\000\000\000K\000\000\000\000\000\000\000F\000\000\000\000\000\000\000I\000\000\000\000\000\000\000K\000\000\000\000\000\000\000L\000\000\000\000\000\000\000H\000\000\000\000\000\000\000G\000\000\000\000\000\000\000K\000\000\000\000\000\000\000Q\000\000\000\000\000\000\000R\000\000\000\000\000\000\000R\000\000\000\000\000\000\000J\000\000\000\000\000\000\000G\000\000\000\000\000\000\000M\000\000\000\000\000\000\000M\000\000\000\000\000\000\000L\000\000\000\000\000\000\000L\000\000\000\000\000\000\000R\000\000\000\000\000\000\000O\000\000\000\000\000\000\000N\000\000\000\000\000\000\000J\000\000\000\000\000\000\000P\000\000\000\000\000\000\000I\000\000\000\000\000\000\000G\000\000\000\000\000\000\000I\000\000\000\000\000\000\000M\000\000\000\000\000\000\000J\000\000\000\000\000\000\000R\000\000\000\000\000\000\000K\000\000\000\000\000\000\000F\000\000\000\000\000\000\000N\000\000\000\000\000\000\000K\000\000\000\000\000\000\000N\000\000\000\000\000\000\000G\000\000\000\000\000\000\000P\000\000\000\000\000\000\000M\000\000\000\000\000\000\000M\000\000\000\000\000\000\000I\000\000\000\000\000\000\000Q\000\000\000\000\000\000\000K\000\000\000\000\000\000\000H\000\000\000\000\000\000\000R\000\000\000\000\000\000\000I\000\000\000\000\000\000\000F\000\000\000\000\000\000\000R\000\000\000\000\000\000\000I\000\000\000\000\000\000\000Q\000\000\000\000\000\000\000P\000\000\000\000\000\000\000P\000\000\000\000\000\000\000F\000\000\000\000\000\000\000G\000\000\000\000\000\000\000G\000\000\000\000\000\000\000N\000\000\000\000\000\000\000G\000\000\000\000\000\000\000N\000\000\000\000\000\000\000G\000\000\000\000\000\000\000P\000\000\000\000\000\000\000R\000\000\000\000\000\000\000G\000\000\000\000\000\000\000N\000\000\000\000\000\000\000G\000\000\000\000\000\000\000Q\000\000\000\000\000\000\000H\000\000\000\000\000\000\000K\000\000\000\000\000\000\000J\000\000\000\000\000\000\000G\000\000\000\000\000\000\000M\000\000\000\000\000\000\000H\000\000\000\000\000\000\000N\000\000\000\000\000\000\000P\000\000\000\000\000\000\000N\000\000\000\000\000\000\000R\000\000\000\000\000\000\000R\000\000\000\000\000\000\000R\000\000\000\000\000\000\000G\000\000\000\000\000\000\000L\000\000\000\000\000\000\000K\000\000\000\000\000\000\000N\000\000\000\000\000\000\000G\000\000\000\000\000\000\000I\000\000\000\000\000\000\000K\000\000\000\000\000\000\000M\000\000\000\000\000\000\000O\000\000\000\000\000\000\000G\000\000\000\000\000\000\000F\000\000\000\000\000\000\000I\000\000\000\000\000\000\000K\000\000\000\000\000\000\000H\000\000\000\000\000\000\000G\000\000\000\000\000\000\000L\000\000\000\000\000\000\000N\000\000\000\000\000\000\000J\000\000\000\000\000\000\000F\000\000\000\000\000\000\000R\000\000\000\000\000\000\000L\000\000\000\000\000\000\000L\000\000\000\000\000\000\000L\000\000\000\000\000\000\000J\000\000\000\000\000\000\000O\000\000\000\000\000\000\000I\000\000\000\000\000\000\000L\000\000\000\000\000\000\000Q\000\000\000\000\000\000\000J\000\000\000\000\000\000\000R\000\000\000\000\000\000\000Q\000\000\000\000\000\000\000L\000\000\000\000\000\000\000N\000\000\000\000\000\000\000Q\000\000\000\000\000\000\000M\000\000\000\000\000\000\000P\000\000\000\000\000\000\000M\000\000\000\000\000\000\000H\000\000\000\000\000\000\000P\000\000\000\000\000\000\000P\000\000\000\000\000\000\000O\000\000\000\000\000\000\000L\000\000\000\000\000\000\000I\000\000\000\000\000\000\000I\000\000\000\000\000\000\000I\000\000\000\000\000\000\000O\000\000\000\000\000\000\000K\000\000\000\000\000\000\000Q\000\000\000\000\000\000\000G\000\000\000\000\000\000\000K\000\000\000\000\000\000\000L\000\000\000\000\000\000\000L\000\000\000\000\000\000\000L\000\000\000\000\000\000\000P\000\000\000\000\000\000\000I\000\000\000\000\000\000\000M\000\000\000\000\000\000\000J\000\000\000\000\000\000\000O\000\000\000\000\000\000\000H\000\000\000\000\000\000\000I\000\000\000\000\000\000\000L\000\000\000\000\000\000\000J\000\000\000\000\000\000\000J\000\000\000\000\000\000\000L\000\000\000\000\000\000\000K\000\000\000\000\000\000\000P\000\000\000\000\000\000\000F\000\000\000\000\000\000\000N\000\000\000\000\000\000\000I\000\000\000\000\000\000\000L\000\000\000\000\000\000\000M\000\000\000\000\000\000\000H\000\000\000\000\000\000\000O\000\000\000\000\000\000\000G\000\000\000\000\000\000\000Q\000\000\000\000\000\000\000F\000\000\000\000\000\000\000Q\000\000\000\000\000\000\000H\000\000\000\000\000\000\000L\000\000\000\000\000\000\000H\000\000\000\000\000\000\000N\000\000\000\000\000\000\000R\000\000\000\000\000\000\000J\000\000\000\000\000\000\000Q\000\000\000\000\000\000\000F\000\000\000\000\000\000\000G\000\000\000\000\000\000\000N\000\000\000\000\000\000\000N\000\000\000\000\000\000\000N\000\000\000\000\000\000\000L\000\000\000\000\000\000\000K\000\000\000\000\000\000\000R\000\000\000\000\000\000\000O\000\000\000\000\000\000\000L\000\000\000\000\000\000\000H\000\000\000\000\000\000\000N\000\000\000\000\000\000\000R\000\000\000\000\000\000\000I\000\000\000\000\000\000\000M\000\000\000\000\000\000\000J\000\000\000\000\000\000\000P\000\000\000\000\000\000\000N\000\000\000\000\000\000\000O\000\000\000\000\000\000\000J\000\000\000\000\000\000\000K\000\000\000\000\000\000\000H\000\000\000\000\000\000\000Q\000\000\000\000\000\000\000K\000\000\000\000\000\000\000O\000\000\000\000\000\000\000J\000\000\000\000\000\000\000L\000\000\000\000\000\000\000N\000\000\000\000\000\000\000R\000\000\000\000\000\000\000I\000\000\000\000\000\000\000K\000\000\000\000\000\000\000O\000\000\000\000\000\000\000M\000\000\000\000\000\000\000F\000\000\000\000\000\000\000L\000\000\000\000\000\000\000H\000\000\000\000\000\000\000F\000\000\000\000\000\000\000O\000\000\000\000\000\000\000I\000\000\000\000\000\000\000Q\000\000\000\000\000\000\000P\000\000\000\000\000\000\000F\000\000\000\000\000\000\000H\000\000\000\000\000\000\000G\000\000\000\000\000\000\000O\000\000\000\000\000\000\000F\000\000\000\000\000\000\000R\000\000\000\000\000\000\000G\000\000\000\000\000\000\000R\000\000\000\000\000\000\000G\000\000\000\000\000\000\000I\000\000\000\000\000\000\000I\000\000\000\000\000\000\000R\000\000\000\000\000\000\000M\000\000\000\000\000\000\000N\000\000\000\000\000\000\000L\000\000\000\000\000\000\000P\000\000\000\000\000\000\000F\000\000\000\000\000\000\000P\000\000\000\000\000\000\000F\000\000\000\000\000\000\000P\000\000\000\000\000\000\000P\000\000\000\000\000\000\000F\000\000\000\000\000\000\000J\000\000\000\000\000\000\000I\000\000\000\000\000\000\000Q\000\000\000\000\000\000\000M\000\000\000\000\000\000\000M\000\000\000\000\000\000\000H\000\000\000\000\000\000\000G\000\000\000\000\000\000\000K\000\000\000\000\000\000\000N\000\000\000\000\000\000\000Q\000\000\000\000\000\000\000N\000\000\000\000\000\000\000N\000\000\000\000\000\000\000K\000\000\000\000\000\000\000O\000\000\000\000\000\000\000M\000\000\000\000\000\000\000H\000\000\000\000\000\000\000J\000\000\000\000\000\000\000J\000\000\000\000\000\000\000Q\000\000\000\000\000\000\000J\000\000\000\000\000\000\000L\000\000\000\000\000\000\000N\000\000\000\000\000\000\000H\000\000\000\000\000\000\000M\000\000\000\000\000\000\000G\000\000\000\000\000\000\000"
      }
    }
  }
}
node {
  name: "normalize_element/component_5"
  op: "Const"
  device: "/device:CPU:0"
  attr {
    key: "_output_shapes"
    value {
      list {
        shape {
          dim {
            size: 313
          }
        }
      }
    }
  }
  attr {
    key: "dtype"
    value {
      type: DT_INT64
    }
  }
  attr {
    key: "value"
    value {
      tensor {
        dtype: DT_INT64
        tensor_shape {
          dim {
            size: 313
          }
        }
        tensor_content: "\001\000\000\000\000\000\000\000\001\000\000\000\000\000\000\000\002\000\000\000\000\000\000\000\003\000\000\000\000\000\000\000\002\000\000\000\000\000\000\000\001\000\000\000\000\000\000\000\001\000\000\000\000\000\000\000\003\000\000\000\000\000\000\000\001\000\000\000\000\000\000\000\003\000\000\000\000\000\000\000\001\000\000\000\000\000\000\000\001\000\000\000\000\000\000\000\001\000\000\000\000\000\000\000\001\000\000\000\000\000\000\000\001\000\000\000\000\000\000\000\001\000\000\000\000\000\000\000\001\000\000\000\000\000\000\000\001\000\000\000\000\000\000\000\002\000\000\000\000\000\000\000\001\000\000\000\000\000\000\000\001\000\000\000\000\000\000\000\003\000\000\000\000\000\000\000\001\000\000\000\000\000\000\000\001\000\000\000\000\000\000\000\003\000\000\000\000\000\000\000\002\000\000\000\000\000\000\000\003\000\000\000\000\000\000\000\001\000\000\000\000\000\000\000\003\000\000\000\000\000\000\000\001\000\000\000\000\000\000\000\001\000\000\000\000\000\000\000\003\000\000\000\000\000\000\000\002\000\000\000\000\000\000\000\003\000\000\000\000\000\000\000\001\000\000\000\000\000\000\000\001\000\000\000\000\000\000\000\001\000\000\000\000\000\000\000\001\000\000\000\000\000\000\000\001\000\000\000\000\000\000\000\002\000\000\000\000\000\000\000\001\000\000\000\000\000\000\000\002\000\000\000\000\000\000\000\003\000\000\000\000\000\000\000\002\000\000\000\000\000\000\000\003\000\000\000\000\000\000\000\001\000\000\000\000\000\000\000\002\000\000\000\000\000\000\000\002\000\000\000\000\000\000\000\001\000\000\000\000\000\000\000\003\000\000\000\000\000\000\000\001\000\000\000\000\000\000\000\002\000\000\000\000\000\000\000\001\000\000\000\000\000\000\000\001\000\000\000\000\000\000\000\001\000\000\000\000\000\000\000\001\000\000\000\000\000\000\000\001\000\000\000\000\000\000\000\003\000\000\000\000\000\000\000\003\000\000\000\000\000\000\000\001\000\000\000\000\000\000\000\001\000\000\000\000\000\000\000\001\000\000\000\000\000\000\000\002\000\000\000\000\000\000\000\001\000\000\000\000\000\000\000\001\000\000\000\000\000\000\000\002\000\000\000\000\000\000\000\001\000\000\000\000\000\000\000\002\000\000\000\000\000\000\000\001\000\000\000\000\000\000\000\001\000\000\000\000\000\000\000\003\000\000\000\000\000\000\000\002\000\000\000\000\000\000\000\003\000\000\000\000\000\000\000\001\000\000\000\000\000\000\000\001\000\000\000\000\000\000\000\001\000\000\000\000\000\000\000\003\000\000\000\000\000\000\000\001\000\000\000\000\000\000\000\002\000\000\000\000\000\000\000\001\000\000\000\000\000\000\000\001\000\000\000\000\000\000\000\001\000\000\000\000\000\000\000\003\000\000\000\000\000\000\000\001\000\000\000\000\000\000\000\001\000\000\000\000\000\000\000\001\000\000\000\000\000\000\000\002\000\000\000\000\000\000\000\003\000\000\000\000\000\000\000\002\000\000\000\000\000\000\000\001\000\000\000\000\000\000\000\001\000\000\000\000\000\000\000\003\000\000\000\000\000\000\000\001\000\000\000\000\000\000\000\001\000\000\000\000\000\000\000\001\000\000\000\000\000\000\000\001\000\000\000\000\000\000\000\002\000\000\000\000\000\000\000\001\000\000\000\000\000\000\000\001\000\000\000\000\000\000\000\001\000\000\000\000\000\000\000\001\000\000\000\000\000\000\000\003\000\000\000\000\000\000\000\001\000\000\000\000\000\000\000\002\000\000\000\000\000\000\000\001\000\000\000\000\000\000\000\003\000\000\000\000\000\000\000\003\000\000\000\000\000\000\000\001\000\000\000\000\000\000\000\001\000\000\000\000\000\000\000\001\000\000\000\000\000\000\000\001\000\000\000\000\000\000\000\001\000\000\000\000\000\000\000\001\000\000\000\000\000\000\000\003\000\000\000\000\000\000\000\002\000\000\000\000\000\000\000\001\000\000\000\000\000\000\000\001\000\000\000\000\000\000\000\003\000\000\000\000\000\000\000\001\000\000\000\000\000\000\000\001\000\000\000\000\000\000\000\001\000\000\000\000\000\000\000\003\000\000\000\000\000\000\000\001\000\000\000\000\000\000\000\002\000\000\000\000\000\000\000\003\000\000\000\000\000\000\000\001\000\000\000\000\000\000\000\001\000\000\000\000\000\000\000\001\000\000\000\000\000\000\000\003\000\000\000\000\000\000\000\001\000\000\000\000\000\000\000\001\000\000\000\000\000\000\000\001\000\000\000\000\000\000\000\001\000\000\000\000\000\000\000\001\000\000\000\000\000\000\000\001\000\000\000\000\000\000\000\003\000\000\000\000\000\000\000\003\000\000\000\000\000\000\000\002\000\000\000\000\000\000\000\003\000\000\000\000\000\000\000\003\000\000\000\000\000\000\000\001\000\000\000\000\000\000\000\001\000\000\000\000\000\000\000\001\000\000\000\000\000\000\000\001\000\000\000\000\000\000\000\002\000\000\000\000\000\000\000\001\000\000\000\000\000\000\000\002\000\000\000\000\000\000\000\002\000\000\000\000\000\000\000\001\000\000\000\000\000\000\000\001\000\000\000\000\000\000\000\001\000\000\000\000\000\000\000\002\000\000\000\000\000\000\000\002\000\000\000\000\000\000\000\001\000\000\000\000\000\000\000\001\000\000\000\000\000\000\000\003\000\000\000\000\000\000\000\001\000\000\000\000\000\000\000\001\000\000\000\000\000\000\000\001\000\000\000\000\000\000\000\001\000\000\000\000\000\000\000\001\000\000\000\000\000\000\000\001\000\000\000\000\000\000\000\002\000\000\000\000\000\000\000\002\000\000\000\000\000\000\000\001\000\000\000\000\000\000\000\001\000\000\000\000\000\000\000\002\000\000\000\000\000\000\000\001\000\000\000\000\000\000\000\003\000\000\000\000\000\000\000\003\000\000\000\000\000\000\000\003\000\000\000\000\000\000\000\001\000\000\000\000\000\000\000\001\000\000\000\000\000\000\000\001\000\000\000\000\000\000\000\003\000\000\000\000\000\000\000\002\000\000\000\000\000\000\000\001\000\000\000\000\000\000\000\001\000\000\000\000\000\000\000\003\000\000\000\000\000\000\000\001\000\000\000\000\000\000\000\003\000\000\000\000\000\000\000\001\000\000\000\000\000\000\000\002\000\000\000\000\000\000\000\001\000\000\000\000\000\000\000\001\000\000\000\000\000\000\000\002\000\000\000\000\000\000\000\002\000\000\000\000\000\000\000\002\000\000\000\000\000\000\000\001\000\000\000\000\000\000\000\002\000\000\000\000\000\000\000\002\000\000\000\000\000\000\000\001\000\000\000\000\000\000\000\001\000\000\000\000\000\000\000\001\000\000\000\000\000\000\000\001\000\000\000\000\000\000\000\001\000\000\000\000\000\000\000\001\000\000\000\000\000\000\000\001\000\000\000\000\000\000\000\001\000\000\000\000\000\000\000\001\000\000\000\000\000\000\000\001\000\000\000\000\000\000\000\001\000\000\000\000\000\000\000\002\000\000\000\000\000\000\000\003\000\000\000\000\000\000\000\003\000\000\000\000\000\000\000\001\000\000\000\000\000\000\000\003\000\000\000\000\000\000\000\001\000\000\000\000\000\000\000\001\000\000\000\000\000\000\000\001\000\000\000\000\000\000\000\001\000\000\000\000\000\000\000\002\000\000\000\000\000\000\000\001\000\000\000\000\000\000\000\001\000\000\000\000\000\000\000\001\000\000\000\000\000\000\000\003\000\000\000\000\000\000\000\002\000\000\000\000\000\000\000\001\000\000\000\000\000\000\000\002\000\000\000\000\000\000\000\001\000\000\000\000\000\000\000\002\000\000\000\000\000\000\000\001\000\000\000\000\000\000\000\001\000\000\000\000\000\000\000\002\000\000\000\000\000\000\000\001\000\000\000\000\000\000\000\001\000\000\000\000\000\000\000\003\000\000\000\000\000\000\000\001\000\000\000\000\000\000\000\001\000\000\000\000\000\000\000\001\000\000\000\000\000\000\000\001\000\000\000\000\000\000\000\001\000\000\000\000\000\000\000\003\000\000\000\000\000\000\000\002\000\000\000\000\000\000\000\001\000\000\000\000\000\000\000\001\000\000\000\000\000\000\000\001\000\000\000\000\000\000\000\001\000\000\000\000\000\000\000\001\000\000\000\000\000\000\000\003\000\000\000\000\000\000\000\003\000\000\000\000\000\000\000\003\000\000\000\000\000\000\000\003\000\000\000\000\000\000\000\001\000\000\000\000\000\000\000\001\000\000\000\000\000\000\000\001\000\000\000\000\000\000\000\003\000\000\000\000\000\000\000\003\000\000\000\000\000\000\000\001\000\000\000\000\000\000\000\001\000\000\000\000\000\000\000\001\000\000\000\000\000\000\000\002\000\000\000\000\000\000\000\003\000\000\000\000\000\000\000\001\000\000\000\000\000\000\000\001\000\000\000\000\000\000\000\001\000\000\000\000\000\000\000\001\000\000\000\000\000\000\000\001\000\000\000\000\000\000\000\001\000\000\000\000\000\000\000\003\000\000\000\000\000\000\000\001\000\000\000\000\000\000\000\001\000\000\000\000\000\000\000\002\000\000\000\000\000\000\000\003\000\000\000\000\000\000\000\001\000\000\000\000\000\000\000\003\000\000\000\000\000\000\000\001\000\000\000\000\000\000\000\002\000\000\000\000\000\000\000\001\000\000\000\000\000\000\000\001\000\000\000\000\000\000\000\001\000\000\000\000\000\000\000\001\000\000\000\000\000\000\000\002\000\000\000\000\000\000\000\001\000\000\000\000\000\000\000\001\000\000\000\000\000\000\000\002\000\000\000\000\000\000\000\001\000\000\000\000\000\000\000\001\000\000\000\000\000\000\000\002\000\000\000\000\000\000\000\001\000\000\000\000\000\000\000\002\000\000\000\000\000\000\000\003\000\000\000\000\000\000\000\001\000\000\000\000\000\000\000\001\000\000\000\000\000\000\000\002\000\000\000\000\000\000\000\003\000\000\000\000\000\000\000\003\000\000\000\000\000\000\000\001\000\000\000\000\000\000\000\002\000\000\000\000\000\000\000\001\000\000\000\000\000\000\000\003\000\000\000\000\000\000\000\003\000\000\000\000\000\000\000\001\000\000\000\000\000\000\000\001\000\000\000\000\000\000\000\002\000\000\000\000\000\000\000\001\000\000\000\000\000\000\000\001\000\000\000\000\000\000\000\003\000\000\000\000\000\000\000\001\000\000\000\000\000\000\000\002\000\000\000\000\000\000\000\002\000\000\000\000\000\000\000\001\000\000\000\000\000\000\000\003\000\000\000\000\000\000\000\001\000\000\000\000\000\000\000\003\000\000\000\000\000\000\000\001\000\000\000\000\000\000\000\001\000\000\000\000\000\000\000\001\000\000\000\000\000\000\000\003\000\000\000\000\000\000\000\001\000\000\000\000\000\000\000\001\000\000\000\000\000\000\000\001\000\000\000\000\000\000\000\001\000\000\000\000\000\000\000"
      }
    }
  }
}
node {
  name: "normalize_element/component_6"
  op: "Const"
  device: "/device:CPU:0"
  attr {
    key: "_output_shapes"
    value {
      list {
        shape {
          dim {
            size: 313
          }
        }
      }
    }
  }
  attr {
    key: "dtype"
    value {
      type: DT_DOUBLE
    }
  }
  attr {
    key: "value"
    value {
      tensor {
        dtype: DT_DOUBLE
        tensor_shape {
          dim {
            size: 313
          }
        }
        tensor_content: "\207\000L\252\270\304\341\277\030C\365Z\302\327\350??\202%s\323\374\353\277\252\030Y\347\303\303\361\277\'\007\2373\307\024\355\277\367\366\341\001\0176\360?<\251\036}\311\034\341?\377\261\240\347|\363\364\277\032\371\315\257,\366\325\277:\206\275\320\317\020\363\277\321|\365\343\255\246\256?\313\230R\014\305\017\356\277\001\325\001\224v\377\342?\000\t\370\207\361%\371?\\P\256(\337\311\372?T\313\221\025\220\304\002@\307\367V\224\366\262\323\277\037\013W\341\035!\371?\177<\274z\226\021\311\277v\206\311|Ii\300?\r\177\330\326\256_\372?\353\200\256W\235\271\351\277\276}\356\017j\341\335\277\372y\261@\313\213\223\277\177EJ\221\303@\352\277S\177\336\333\260I\356\277\263\035\314\314\270\'\357\277}`\364\324J\316\275?\202\320\272\010\340g\362\277>4L\301^}\366?\254U\255y\344\244\361?\311\032\270@\360\276\361\277i\216\223!\216\374\315?\202\320\272\010\340g\362\277x\244niO\334\344\277\234\354L\350\347(\356?\032\371\315\257,\366\325\277^\301;\342\001\230\323?\257x\273\312)n\372?\371*\270\245/d\341\277\220\241\007\202\3220\322\277z\010\026O\375W\357\277z\010\026O\375W\357\277\372\341\364\374E\370\312?H\273\004\213$\230\362\277`f\\\014\276\315\352?\316\026 \343\363\252\352\277\367t\337P\305E\324?\311\262\250u\315\243\367?\365\323=\"\216c\337\277\237-\246\334\233\352\345\277\345\305\337I\002\200\362\277\003\224h\377\rM\341?\262\250l\274\\\303\356?\267\227t\361\371\351\356?(g\307\035\360<\305?\034\264\037\221\003\347\371?\252\013\266F\3267\346\277\275\2274QE\371\344\277U\210L\242\203\200\352?\246Y\022\314\206n\370?\200\004\261\374Z\216\350\277Jzk\366\273\345\360\277 \264\357\030|r\342\277l\271\036\342\010\302\360?\330\304n3\316&\324\277\364\327b\324{<\314\277\243j\352F\217O\363\277w/\017Y\363w\344?\016XBP\232\376\374?E=7\264\365\374\365\277\360|Y-(l\365\277eY\211\363H\315\347\277U\242?\210\252U\374?UTf\3265\326\326?j\205\005\013a\315\354?\322F\301\254\371\203\354\277A\363_\321A\210\357\277\214\325`\371.\026\360\277\354\245\313\nh\323\000@,\250\315\266\357\273\367?\216\353.-h\022\345?J\3024\016\276\322\242\277\327\347\357/\"+\367?9B\350\356u\006\213\277\224\332&:\330\274\362?\275\216\246:\030\312\303\277H\374\215\367_\316\341\277.\313.c\351\307\325?E\356\266\314MA\261\277\211,\350\021+\275\333?\002\357\241\036\351\221\357\277]\225\371\303&\032\317\277\314W\004?\372a\000@\366\301!\3653\005\275\277\261\370D\250)\027\000@*\222\017\253\343;\365\277\370Z\231\017\352-\355?s@\367\373(\325\361?\357\260O!\243\222\353\277\002\037\260p\035\367N?h\327V\312wh\344\277\246\030\211_K8\351?\'\007\2373\307\024\355\277\302\206<\206\342\037\345\277a\350^\275\007\276\366\277\302\010O_Y\214\323\277Jm\310U\316Y\345\277A\363_\321A\210\357\277\331\246V\233\271x\365?\032\365\270%l\231\373?\027{\000\331\375Z\331\277\315\214\211\254d\n\262?Jzk\366\273\345\360\277\274\244\327\3612\205\360\277\032s\266t\"\251\337?\310\264d|\236\261\000@r\250\323\273\361\245\353\277\326\220\230\217\255\370\362\277\227{2\332\323\225\337?~\307\\j:\255\330\277\244j\332\036b\323\340\277}\206\343%,\363\353\2779B\350\356u\006\213\277\017\246N\ri\310\362\277]CN\273x\004\342?\346)\332\212d>\342?\276\021\375\305\340\263\331?\376\3629|\345\245\366\277\221\\Yc\251!\366?\273\010\237\';\371\377?\375ZYo5=\343\277\207\273\255\263\2741\330?\365Q~\244\3139\366?\252;\207\210c\205\377?\347\204F\265\231\315\360\277\006t\257\240\336\343\256\277u\276\324\372\204\354\340?\320\207ZAb6\356\277\250\316a\264\265V\326\277Jm\310U\316Y\345\277x\244niO\334\344\277j\372\267vqt\362?\363b\003\304\037\330\333\277\202\320\272\010\340g\362\277\365\362\354\307\250\321\312?\177EJ\221\303@\352\277\372y\261@\313\213\223\277\300y\374h\326R\361?\2311\013/>\264\354\277V\257\322\000ke\365?\332\001\303\305\356\007\344\277:\206\275\320\317\020\363\277\233\365\332\376\024X\317?x\373\3251\361\212\373?\003\273\253*nk\371\277\373\330f\346\030\311\351?27\340\014\276\004\300\277\0161\254\311\205\235\377?W>%\367\355\236\327\277\242\322\306\006X \335\277\271\313\215\310\241\336\362?\026:\207\224\357\240\354\27728D\017jz\314?\325O\037K\237>\366?NO\220m_\263\361?\023\326\357\326n\241\364\277\371\216\262\346\221\"\361?rf\366t7v\262\277j\007\010\274\252\275\370\277f%\223\377\315\246\361\277\002\314s}I\320\321\277Z\006\nQ\205\237\364?S\027\022D\025\365\346?tZ\332\271\".\361\277\001q\007S\024A\363\277\277k\322\342\017\203\273\277\016\332D\001\344\356\350\277\255|\360\244D\303\351\277\010\336\251S\206\270\357\277\313\331\036\254\207\014\360\277\336\343\212\335\177a\360?}\206\343%,\363\353\277|\335\235I\202\344\327?\014\315\004\344\327!\365?\016\016+\3151\231\334\277\033\301\3021\361r\345?9\223\035>6\326\353\277\016\347\347\241\321z\364\277\n\220\260Q\267@\365\277\227_\337v]Ct\277\313\230R\014\305\017\356\277X\006\032y\262\033\347?*\271R\326CZ\335\277d\221\224q\204P\310\277$\374\032\035\214U\002@\275\373.\222\247\267\364?}\272\311\361y\235\337\277j\205\005\013a\315\354?\365\237WV@\271\353\277cLAB&\302\002@\237:I}\211v\361\277\321\241\220Z\020\322\362\277P\\\320\212k\200\345\277\036\333\225\307\275O\362\277\023a\200\236\345\300\341?\313\331\036\254\207\014\360\277\t5D\'\202\261\346?\312u$k%N\320\277\221$^\r\233\032\310?\233Tl\3337\300\372?\334\246\343\357\252=\333\277\177\367\035\204\232~\357\277^]\356E\353\226\356\277\230\210\305R\224\245\330?\373\317\330\317\353\231\330\277\025\n\306z\217\317\325\277\330O\377\372DF\361\277\007\216\325\221_\003\241\277\020\257\314\373h{\321?\352{\274\027={\225?K\321\302\2260\030\365?\233\347\343\203\250\322\311\277W\360KEy\037\362\277Dq-\250p#\354\277\031P\210\323\202\347\341?\224\016\r\006&g\366\2771I\3749\030c\322?\220\241\007\202\3220\322\277u\276\324\372\204\354\340?\r\033\336\225L\241\352\277y\356u\304\212\305\342?\232\360q\232\325\001\353\277z\010\026O\375W\357\277\314`G\216\211\214\335?\251\327\337\242\265\t\365?\342G\022s\323\344\365\277\372y\261@\313\213\223\277\361!\335\332\305`\364?\020\220\035VN\r\306\277\265\366hQ\376\020\362\277%H8\310/\307\356\277\016\332D\001\344\356\350\277y\010i\252\261\232\364?0\261\330\371\3403\374?\360\361\310e\261L\330\277\222\304h.\314<\360\277\013\\w*\265S\354\277E\325\'\351\322\341\373?\351R;\251\243`\241?\035\361\203KQD\334?\243j\352F\217O\363\277KS\202\024\363A\336\277n\372D\313b9\330\277\031\017\2743\300\352\377?^\260\203\267S\257\315?_%\343\307\257\023\336?T\326x\257\254B\345?\336a5\321\201.\377?E=7\264\365\374\365\277Mi\223{\263\004\366?\255\301\216\233@V\303\277\210\310@,}A\321?a)\350)C\364\345\277\245P\224\335\206\273\331\277m\254k\031\356\271\362\277\030]\350@\351\254\372?\252Y\342S\377\371\340\277\325\003\257DG\212\004@\341\022\225\231\177z\265\277\325\\\302\353\214\312\341?O\321O\353!\335\332\277\304\352\343k\220\233\357\277\206\'\237\375E_\334\277@A\214\336jJ\352\2776\244\365\270>\267\326\277\024-Gw\343\323\370?\346 Lt7\017\321\277\360|Y-(l\365\277\227r\244\303\246f\356\277\027\371@[;1\360?)U\253\360\225\336\322\277=\r\306bw\230\353?\n\340\327n\2228\251?f\030\360^\340\032\346\277}\272\311\361y\235\337\277\177EJ\221\303@\352\277\354\344\250\230\377w\371?\016\332D\001\344\356\350\277\213\224\347\264 \\\363?3&(\342\017\034\332\277\220\241\007\202\3220\322\277\227r\244\303\246f\356\277P\2637S\r/\374?d\215\302\032K\272\360\277-Z\241\251\306\371\374?\365\245\017\221\327Yr?J\3024\016\276\322\242\277\221i\374\003\227\255\341?\036\333\225\307\275O\362\277\230\001J\025\336\342\325\277\330K\352p\204\351\326?\202\320\272\010\340g\362\277I`\2108\302\214\361?I\224n\004\0207\365\277A\363_\321A\210\357\277\373\317\330\317\353\231\330\277\316`\'>/\224\350?\227r\244\303\246f\356\277\277\036\220>\241\303\322?\027\253\024N\022o\365?\224\\9\023O)\361\277\204\277\342\215\327\206\367?"
      }
    }
  }
}
node {
  name: "normalize_element/component_7"
  op: "Const"
  device: "/device:CPU:0"
  attr {
    key: "_output_shapes"
    value {
      list {
        shape {
          dim {
            size: 313
          }
        }
      }
    }
  }
  attr {
    key: "dtype"
    value {
      type: DT_DOUBLE
    }
  }
  attr {
    key: "value"
    value {
      tensor {
        dtype: DT_DOUBLE
        tensor_shape {
          dim {
            size: 313
          }
        }
        tensor_content: "333333;@\232\231\231\231\231\2312@\000\000\000\000\000\000=@\232\231\231\231\231\231B@\000\000\000\000\000\200@@\000\000\000\000\000\000*@ffffff6@\315\314\314\314\314LF@ffffff;@\000\000\000\000\000\000?@\000\000\000\000\000\0008@\000\000\000\000\000\000<@\232\231\231\231\231\2311@\000\000\000\000\000\000.@\000\000\000\000\000\000&@\000\000\000\000\000\000(@\315\314\314\314\314\314:@\000\000\000\000\000\000*@\232\231\231\231\231\2315@\315\314\314\314\314\3144@fffff\3460@\000\000\000\000\000\0004@\000\000\000\000\000\200:@\000\000\000\000\000\0002@\000\000\000\000\000\000:@\000\000\000\000\000\0008@\000\000\000\000\000\200=@3333334@ffffff@@\000\000\000\000\000\000,@\000\000\000\000\000\0000@\315\314\314\314\314\314?@33333\263>@\315\314\314\314\314\014A@\000\000\000\000\000\0004@\000\000\000\000\000\000.@ffffff<@\000\000\000\000\000\0004@\000\000\000\000\000\000*@\000\000\000\000\000\200A@\000\000\000\000\000\000?@\000\000\000\000\000\000F@\000\000\000\000\000\000;@\000\000\000\000\000\0001@\315\314\314\314\314\014A@\000\000\000\000\000\000,@\000\000\000\000\000\0007@\232\231\231\231\231\031<@\000\000\000\000\000\000-@\000\000\000\000\000\0008@fffff\346=@\000\000\000\000\000\000B@fffff\3467@\000\000\000\000\000\000.@\000\000\000\000\000\0000@\000\000\000\000\000\0004@\000\000\000\000\000\0000@\000\000\000\000\000\0008@fffff\3467@\000\000\000\000\000\000&@\000\000\000\000\000\000,@\000\000\000\000\000\0003@\000\000\000\000\000\000>@\000\000\000\000\000\0005@\000\000\000\000\000\000.@\000\000\000\000\000\0007@\000\000\000\000\000\0002@\000\000\000\000\000\000=@\000\000\000\000\000\0002@\000\000\000\000\000\000(@\000\000\000\000\000\200@@\000\000\000\000\000\200=@\000\000\000\000\000\0003@\000\000\000\000\000\000,@\000\000\000\000\000\0003@\232\231\231\231\231\231:@\000\000\000\000\000\000B@\000\000\000\000\000\000C@\000\000\000\000\000\0008@\000\000\000\000\000\000*@\000\000\000\000\000\0000@\000\000\000\000\000\2001@\000\000\000\000\000\0003@\000\000\000\000\000\0000@\000\000\000\000\000\000;@\000\000\000\000\000\2000@\315\314\314\314\314L4@\000\000\000\000\000\0008@\000\000\000\000\000\000>@\000\000\000\000\000\0007@\000\000\000\000\000\0001@\000\000\000\000\000\0002@\000\000\000\000\000\2009@\000\000\000\000\000\000*@\000\000\000\000\000\0008@\000\000\000\000\000\0000@\000\000\000\000\000\000:@ffffff3@\000\000\000\000\000\0001@fffff\346>@\000\000\000\000\000\0002@33333\2637@\000\000\000\000\000\0003@\000\000\000\000\000\200>@\000\000\000\000\000\0005@\315\314\314\314\314\214C@\000\000\000\000\000\0008@\000\000\000\000\000\0006@\000\000\000\000\000\000B@\000\000\000\000\000\000*@\000\000\000\000\000\000,@\000\000\000\000\000\000<@\000\000\000\000\000\0002@fffff&@@fffff&F@\232\231\231\231\231\0313@\000\000\000\000\000\000\"@\000\000\000\000\000\0009@\000\000\000\000\000\000:@\232\231\231\231\231\2314@\000\000\000\000\000\0003@\232\231\231\231\231\0315@\000\000\000\000\000\0007@333333B@\000\000\000\000\000\000@@\000\000\000\000\000\0000@33333\2631@\000\000\000\000\000\0003@\315\314\314\314\314\214A@\000\000\000\000\000\000.@\000\000\000\000\000\000,@\000\000\000\000\000\000:@\000\000\000\000\000\0003@\000\000\000\000\000\000/@\000\000\000\000\000\000&@33333\263C@\232\231\231\231\231Y@@3333330@\000\000\000\000\000\000B@\000\000\000\000\000\000@@\000\000\000\000\000\000A@\000\000\000\000\000\0006@\000\000\000\000\000\000*@\000\000\000\000\000\0007@\315\314\314\314\314\214E@\000\000\000\000\000\0002@\000\000\000\000\000\000:@\000\000\000\000\000\0006@\000\000\000\000\000\2001@\232\231\231\231\231\031A@\000\000\000\000\000\000,@\000\000\000\000\000\0008@\000\000\000\000\000\000:@\000\000\000\000\000\000*@\000\000\000\000\000\000*@\000\000\000\000\000\200A@\000\000\000\000\000\2002@\315\314\314\314\314\3147@\000\000\000\000\000\000,@\000\000\000\000\000\0005@\000\000\000\000\000\000?@\000\000\000\000\000\000/@\000\000\000\000\000\000;@\000\000\000\000\000\0004@\000\000\000\000\000\0000@\000\000\000\000\000\0007@\000\000\000\000\000\000=@\000\000\000\000\000\000*@ffffff9@\000\000\000\000\000\000?@\000\000\000\000\000\200B@\000\000\000\000\000\2007@\000\000\000\000\000\000*@3333334@\232\231\231\231\231\331B@\000\000\000\000\000\000=@ffffff:@\000\000\000\000\000\2009@\000\000\000\000\000\0008@\315\314\314\314\314\014@@ffffffD@3333332@\000\000\000\000\000\0009@\000\000\000\000\000\0000@\000\000\000\000\000\000.@\000\000\000\000\000\0004@ffffff9@\000\000\000\000\000\0009@\000\000\000\000\000\200C@\000\000\000\000\000\000;@\000\000\000\000\000\0007@\000\000\000\000\000\2008@\000\000\000\000\000\0002@\000\000\000\000\000\0009@fffff\346;@\000\000\000\000\000\000(@\000\000\000\000\000\0001@\000\000\000\000\000\0009@\232\231\231\231\231\2311@\000\000\000\000\000\0005@\000\000\000\000\000\000(@\000\000\000\000\000\000=@\000\000\000\000\000\000:@\000\000\000\000\000\000:@\000\000\000\000\000\000@@\000\000\000\000\000\000.@\315\314\314\314\314LG@\000\000\000\000\000\000.@3333337@\000\000\000\000\000\0002@\000\000\000\000\000\2000@\000\000\000\000\000\2005@\000\000\000\000\000\0009@\000\000\000\000\000@A@\000\000\000\000\000\0002@\232\231\231\231\231\231?@\000\000\000\000\000\0009@333333A@\000\000\000\000\000\0002@\000\000\000\000\000\2001@\000\000\000\000\000\0005@\000\000\000\000\000\2001@\000\000\000\000\000\000;@\000\000\000\000\000\000?@\232\231\231\231\231YA@\000\000\000\000\000\0002@\000\000\000\000\000\000?@\232\231\231\231\231\0312@\232\231\231\231\231\0319@\232\231\231\231\231\0312@\000\000\000\000\000\000:@\000\000\000\000\000\0002@\000\000\000\000\000\000A@fffff\246B@\000\000\000\000\000\0006@\000\000\000\000\000\000,@\315\314\314\314\314\014B@\000\000\000\000\000\0009@\000\000\000\000\000\000,@\000\000\000\000\000\0006@\000\000\000\000\000\000@@fffff\346@@333333;@\000\000\000\000\000\000/@\000\000\000\000\000\000,@\000\000\000\000\000\0007@\000\000\000\000\000\000;@\232\231\231\231\231\331@@\000\000\000\000\000\000.@\315\314\314\314\314\3143@\000\000\000\000\000\000.@\000\000\000\000\000\000=@\000\000\000\000\000\200;@\000\000\000\000\000\000;@\000\000\000\000\000\000*@\000\000\000\000\000\000.@\232\231\231\231\231\2314@\000\000\000\000\000\2002@\000\000\000\000\000\000$@\000\000\000\000\000\200@@\000\000\000\000\000\000,@\000\000\000\000\000\0006@333333;@\000\000\000\000\000\0006@\315\314\314\314\314\3149@\315\314\314\314\314\014C@\000\000\000\000\000\000$@\000\000\000\000\000\0006@\000\000\000\000\000\000*@\315\314\314\314\314L6@\000\000\000\000\000\0000@\000\000\000\000\000\000<@\000\000\000\000\000\000<@\000\000\000\000\000\000:@\000\000\000\000\000\000<@\000\000\000\000\000\0008@\000\000\000\000\000\0000@\000\000\000\000\000\000;@\000\000\000\000\000\000B@\000\000\000\000\000\000>@\000\000\000\000\000\2000@\315\314\314\314\314\314=@\000\000\000\000\000\000.@\315\314\314\314\314L8@\000\000\000\000\000\0009@\315\314\314\314\314L?@\232\231\231\231\231\031@@\000\000\000\000\000\000,@\000\000\000\000\000\000:@\000\000\000\000\000\000*@33333s@@\000\000\000\000\000\2005@\000\000\000\000\000\000>@\000\000\000\000\000\000(@\000\000\000\000\000\000>@\000\000\000\000\000\0000@3333334@3333338@\000\000\000\000\000\2004@\000\000\000\000\000\200?@\000\000\000\000\000\0009@3333334@\000\000\000\000\000\000>@\000\000\000\000\000\000.@\000\000\000\000\000\000@@\000\000\000\000\000\000<@\232\231\231\231\231\231:@\000\000\000\000\000\0002@\000\000\000\000\000\000<@ffffff3@\000\000\000\000\000\000*@\000\000\000\000\000\200>@\000\000\000\000\000\000,@"
      }
    }
  }
}
node {
  name: "TensorSliceDataset"
  op: "TensorSliceDataset"
  input: "normalize_element/component_0"
  input: "normalize_element/component_1"
  input: "normalize_element/component_2"
  input: "normalize_element/component_3"
  input: "normalize_element/component_4"
  input: "normalize_element/component_5"
  input: "normalize_element/component_6"
  input: "normalize_element/component_7"
  device: "/device:CPU:0"
  attr {
    key: "Toutput_types"
    value {
      list {
        type: DT_DOUBLE
        type: DT_DOUBLE
        type: DT_DOUBLE
        type: DT_DOUBLE
        type: DT_INT64
        type: DT_INT64
        type: DT_DOUBLE
        type: DT_DOUBLE
      }
    }
  }
  attr {
    key: "_output_shapes"
    value {
      list {
        shape {
        }
      }
    }
  }
  attr {
    key: "is_files"
    value {
      b: false
    }
  }
  attr {
    key: "metadata"
    value {
      s: ""
    }
  }
  attr {
    key: "output_shapes"
    value {
      list {
        shape {
        }
        shape {
        }
        shape {
        }
        shape {
        }
        shape {
        }
        shape {
        }
        shape {
        }
        shape {
        }
      }
    }
  }
  attr {
    key: "replicate_on_split"
    value {
      b: false
    }
  }
  experimental_type {
    type_id: TFT_PRODUCT
    args {
      type_id: TFT_DATASET
      args {
        type_id: TFT_PRODUCT
        args {
          type_id: TFT_TENSOR
          args {
            type_id: TFT_DOUBLE
          }
        }
        args {
          type_id: TFT_TENSOR
          args {
            type_id: TFT_DOUBLE
          }
        }
        args {
          type_id: TFT_TENSOR
          args {
            type_id: TFT_DOUBLE
          }
        }
        args {
          type_id: TFT_TENSOR
          args {
            type_id: TFT_DOUBLE
          }
        }
        args {
          type_id: TFT_TENSOR
          args {
            type_id: TFT_INT64
          }
        }
        args {
          type_id: TFT_TENSOR
          args {
            type_id: TFT_INT64
          }
        }
        args {
          type_id: TFT_TENSOR
          args {
            type_id: TFT_DOUBLE
          }
        }
        args {
          type_id: TFT_TENSOR
          args {
            type_id: TFT_DOUBLE
          }
        }
      }
    }
  }
}
node {
  name: "buffer_size"
  op: "Const"
  device: "/device:CPU:0"
  attr {
    key: "_output_shapes"
    value {
      list {
        shape {
        }
      }
    }
  }
  attr {
    key: "dtype"
    value {
      type: DT_INT64
    }
  }
  attr {
    key: "value"
    value {
      tensor {
        dtype: DT_INT64
        tensor_shape {
        }
        int64_val: 1000
      }
    }
  }
}
node {
  name: "seed"
  op: "Const"
  device: "/device:CPU:0"
  attr {
    key: "_output_shapes"
    value {
      list {
        shape {
        }
      }
    }
  }
  attr {
    key: "dtype"
    value {
      type: DT_INT64
    }
  }
  attr {
    key: "value"
    value {
      tensor {
        dtype: DT_INT64
        tensor_shape {
        }
        int64_val: 0
      }
    }
  }
}
node {
  name: "seed2"
  op: "Const"
  device: "/device:CPU:0"
  attr {
    key: "_output_shapes"
    value {
      list {
        shape {
        }
      }
    }
  }
  attr {
    key: "dtype"
    value {
      type: DT_INT64
    }
  }
  attr {
    key: "value"
    value {
      tensor {
        dtype: DT_INT64
        tensor_shape {
        }
        int64_val: 0
      }
    }
  }
}
node {
  name: "ShuffleDataset"
  op: "ShuffleDataset"
  input: "TensorSliceDataset"
  input: "buffer_size"
  input: "seed"
  input: "seed2"
  device: "/device:CPU:0"
  attr {
    key: "_output_shapes"
    value {
      list {
        shape {
        }
      }
    }
  }
  attr {
    key: "metadata"
    value {
      s: ""
    }
  }
  attr {
    key: "output_shapes"
    value {
      list {
        shape {
        }
        shape {
        }
        shape {
        }
        shape {
        }
        shape {
        }
        shape {
        }
        shape {
        }
        shape {
        }
      }
    }
  }
  attr {
    key: "output_types"
    value {
      list {
        type: DT_DOUBLE
        type: DT_DOUBLE
        type: DT_DOUBLE
        type: DT_DOUBLE
        type: DT_INT64
        type: DT_INT64
        type: DT_DOUBLE
        type: DT_DOUBLE
      }
    }
  }
  attr {
    key: "reshuffle_each_iteration"
    value {
      b: true
    }
  }
  experimental_type {
    type_id: TFT_PRODUCT
    args {
      type_id: TFT_DATASET
      args {
        type_id: TFT_PRODUCT
        args {
          type_id: TFT_TENSOR
          args {
            type_id: TFT_DOUBLE
          }
        }
        args {
          type_id: TFT_TENSOR
          args {
            type_id: TFT_DOUBLE
          }
        }
        args {
          type_id: TFT_TENSOR
          args {
            type_id: TFT_DOUBLE
          }
        }
        args {
          type_id: TFT_TENSOR
          args {
            type_id: TFT_DOUBLE
          }
        }
        args {
          type_id: TFT_TENSOR
          args {
            type_id: TFT_INT64
          }
        }
        args {
          type_id: TFT_TENSOR
          args {
            type_id: TFT_INT64
          }
        }
        args {
          type_id: TFT_TENSOR
          args {
            type_id: TFT_DOUBLE
          }
        }
        args {
          type_id: TFT_TENSOR
          args {
            type_id: TFT_DOUBLE
          }
        }
      }
    }
  }
}
node {
  name: "count"
  op: "Const"
  device: "/device:CPU:0"
  attr {
    key: "_output_shapes"
    value {
      list {
        shape {
        }
      }
    }
  }
  attr {
    key: "dtype"
    value {
      type: DT_INT64
    }
  }
  attr {
    key: "value"
    value {
      tensor {
        dtype: DT_INT64
        tensor_shape {
        }
        int64_val: -1
      }
    }
  }
}
node {
  name: "RepeatDataset"
  op: "RepeatDataset"
  input: "ShuffleDataset"
  input: "count"
  device: "/device:CPU:0"
  attr {
    key: "_output_shapes"
    value {
      list {
        shape {
        }
      }
    }
  }
  attr {
    key: "metadata"
    value {
      s: ""
    }
  }
  attr {
    key: "output_shapes"
    value {
      list {
        shape {
        }
        shape {
        }
        shape {
        }
        shape {
        }
        shape {
        }
        shape {
        }
        shape {
        }
        shape {
        }
      }
    }
  }
  attr {
    key: "output_types"
    value {
      list {
        type: DT_DOUBLE
        type: DT_DOUBLE
        type: DT_DOUBLE
        type: DT_DOUBLE
        type: DT_INT64
        type: DT_INT64
        type: DT_DOUBLE
        type: DT_DOUBLE
      }
    }
  }
  experimental_type {
    type_id: TFT_PRODUCT
    args {
      type_id: TFT_DATASET
      args {
        type_id: TFT_PRODUCT
        args {
          type_id: TFT_TENSOR
          args {
            type_id: TFT_DOUBLE
          }
        }
        args {
          type_id: TFT_TENSOR
          args {
            type_id: TFT_DOUBLE
          }
        }
        args {
          type_id: TFT_TENSOR
          args {
            type_id: TFT_DOUBLE
          }
        }
        args {
          type_id: TFT_TENSOR
          args {
            type_id: TFT_DOUBLE
          }
        }
        args {
          type_id: TFT_TENSOR
          args {
            type_id: TFT_INT64
          }
        }
        args {
          type_id: TFT_TENSOR
          args {
            type_id: TFT_INT64
          }
        }
        args {
          type_id: TFT_TENSOR
          args {
            type_id: TFT_DOUBLE
          }
        }
        args {
          type_id: TFT_TENSOR
          args {
            type_id: TFT_DOUBLE
          }
        }
      }
    }
  }
}
node {
  name: "batch_size"
  op: "Const"
  device: "/device:CPU:0"
  attr {
    key: "_output_shapes"
    value {
      list {
        shape {
        }
      }
    }
  }
  attr {
    key: "dtype"
    value {
      type: DT_INT64
    }
  }
  attr {
    key: "value"
    value {
      tensor {
        dtype: DT_INT64
        tensor_shape {
        }
        int64_val: 8
      }
    }
  }
}
node {
  name: "drop_remainder"
  op: "Const"
  device: "/device:CPU:0"
  attr {
    key: "_output_shapes"
    value {
      list {
        shape {
        }
      }
    }
  }
  attr {
    key: "dtype"
    value {
      type: DT_BOOL
    }
  }
  attr {
    key: "value"
    value {
      tensor {
        dtype: DT_BOOL
        tensor_shape {
        }
        bool_val: false
      }
    }
  }
}
node {
  name: "BatchDatasetV2"
  op: "BatchDatasetV2"
  input: "RepeatDataset"
  input: "batch_size"
  input: "drop_remainder"
  device: "/device:CPU:0"
  attr {
    key: "_output_shapes"
    value {
      list {
        shape {
        }
      }
    }
  }
  attr {
    key: "metadata"
    value {
      s: ""
    }
  }
  attr {
    key: "output_shapes"
    value {
      list {
        shape {
          dim {
            size: -1
          }
        }
        shape {
          dim {
            size: -1
          }
        }
        shape {
          dim {
            size: -1
          }
        }
        shape {
          dim {
            size: -1
          }
        }
        shape {
          dim {
            size: -1
          }
        }
        shape {
          dim {
            size: -1
          }
        }
        shape {
          dim {
            size: -1
          }
        }
        shape {
          dim {
            size: -1
          }
        }
      }
    }
  }
  attr {
    key: "output_types"
    value {
      list {
        type: DT_DOUBLE
        type: DT_DOUBLE
        type: DT_DOUBLE
        type: DT_DOUBLE
        type: DT_INT64
        type: DT_INT64
        type: DT_DOUBLE
        type: DT_DOUBLE
      }
    }
  }
  attr {
    key: "parallel_copy"
    value {
      b: false
    }
  }
  experimental_type {
    type_id: TFT_PRODUCT
    args {
      type_id: TFT_DATASET
      args {
        type_id: TFT_PRODUCT
        args {
          type_id: TFT_TENSOR
          args {
            type_id: TFT_DOUBLE
          }
        }
        args {
          type_id: TFT_TENSOR
          args {
            type_id: TFT_DOUBLE
          }
        }
        args {
          type_id: TFT_TENSOR
          args {
            type_id: TFT_DOUBLE
          }
        }
        args {
          type_id: TFT_TENSOR
          args {
            type_id: TFT_DOUBLE
          }
        }
        args {
          type_id: TFT_TENSOR
          args {
            type_id: TFT_INT64
          }
        }
        args {
          type_id: TFT_TENSOR
          args {
            type_id: TFT_INT64
          }
        }
        args {
          type_id: TFT_TENSOR
          args {
            type_id: TFT_DOUBLE
          }
        }
        args {
          type_id: TFT_TENSOR
          args {
            type_id: TFT_DOUBLE
          }
        }
      }
    }
  }
}
node {
  name: "IteratorV2"
  op: "IteratorV2"
  device: "/device:CPU:0"
  attr {
    key: "_class"
    value {
      list {
        s: "loc:@BatchDatasetV2"
      }
    }
  }
  attr {
    key: "_output_shapes"
    value {
      list {
        shape {
        }
      }
    }
  }
  attr {
    key: "container"
    value {
      s: ""
    }
  }
  attr {
    key: "output_shapes"
    value {
      list {
        shape {
          dim {
            size: -1
          }
        }
        shape {
          dim {
            size: -1
          }
        }
        shape {
          dim {
            size: -1
          }
        }
        shape {
          dim {
            size: -1
          }
        }
        shape {
          dim {
            size: -1
          }
        }
        shape {
          dim {
            size: -1
          }
        }
        shape {
          dim {
            size: -1
          }
        }
        shape {
          dim {
            size: -1
          }
        }
      }
    }
  }
  attr {
    key: "output_types"
    value {
      list {
        type: DT_DOUBLE
        type: DT_DOUBLE
        type: DT_DOUBLE
        type: DT_DOUBLE
        type: DT_INT64
        type: DT_INT64
        type: DT_DOUBLE
        type: DT_DOUBLE
      }
    }
  }
  attr {
    key: "shared_name"
    value {
      s: ""
    }
  }
}
node {
  name: "MakeIterator"
  op: "MakeIterator"
  input: "BatchDatasetV2"
  input: "IteratorV2"
  device: "/device:CPU:0"
  attr {
    key: "_class"
    value {
      list {
        s: "loc:@BatchDatasetV2"
      }
    }
  }
  experimental_type {
    type_id: TFT_PRODUCT
  }
}
node {
  name: "IteratorToStringHandle"
  op: "IteratorToStringHandle"
  input: "IteratorV2"
  device: "/device:CPU:0"
  attr {
    key: "_class"
    value {
      list {
        s: "loc:@BatchDatasetV2"
      }
    }
  }
  attr {
    key: "_output_shapes"
    value {
      list {
        shape {
        }
      }
    }
  }
}
node {
  name: "IteratorGetNext"
  op: "IteratorGetNext"
  input: "IteratorV2"
  device: "/device:CPU:0"
  attr {
    key: "_class"
    value {
      list {
        s: "loc:@BatchDatasetV2"
      }
    }
  }
  attr {
    key: "_output_shapes"
    value {
      list {
        shape {
          dim {
            size: -1
          }
        }
        shape {
          dim {
            size: -1
          }
        }
        shape {
          dim {
            size: -1
          }
        }
        shape {
          dim {
            size: -1
          }
        }
        shape {
          dim {
            size: -1
          }
        }
        shape {
          dim {
            size: -1
          }
        }
        shape {
          dim {
            size: -1
          }
        }
        shape {
          dim {
            size: -1
          }
        }
      }
    }
  }
  attr {
    key: "output_shapes"
    value {
      list {
        shape {
          dim {
            size: -1
          }
        }
        shape {
          dim {
            size: -1
          }
        }
        shape {
          dim {
            size: -1
          }
        }
        shape {
          dim {
            size: -1
          }
        }
        shape {
          dim {
            size: -1
          }
        }
        shape {
          dim {
            size: -1
          }
        }
        shape {
          dim {
            size: -1
          }
        }
        shape {
          dim {
            size: -1
          }
        }
      }
    }
  }
  attr {
    key: "output_types"
    value {
      list {
        type: DT_DOUBLE
        type: DT_DOUBLE
        type: DT_DOUBLE
        type: DT_DOUBLE
        type: DT_INT64
        type: DT_INT64
        type: DT_DOUBLE
        type: DT_DOUBLE
      }
    }
  }
}
node {
  name: "dnn/Cast"
  op: "Cast"
  input: "IteratorGetNext"
  attr {
    key: "DstT"
    value {
      type: DT_FLOAT
    }
  }
  attr {
    key: "SrcT"
    value {
      type: DT_DOUBLE
    }
  }
  attr {
    key: "Truncate"
    value {
      b: false
    }
  }
  attr {
    key: "_output_shapes"
    value {
      list {
        shape {
          dim {
            size: -1
          }
        }
      }
    }
  }
}
node {
  name: "dnn/Cast_1"
  op: "Cast"
  input: "IteratorGetNext:1"
  attr {
    key: "DstT"
    value {
      type: DT_FLOAT
    }
  }
  attr {
    key: "SrcT"
    value {
      type: DT_DOUBLE
    }
  }
  attr {
    key: "Truncate"
    value {
      b: false
    }
  }
  attr {
    key: "_output_shapes"
    value {
      list {
        shape {
          dim {
            size: -1
          }
        }
      }
    }
  }
}
node {
  name: "dnn/Cast_2"
  op: "Cast"
  input: "IteratorGetNext:2"
  attr {
    key: "DstT"
    value {
      type: DT_FLOAT
    }
  }
  attr {
    key: "SrcT"
    value {
      type: DT_DOUBLE
    }
  }
  attr {
    key: "Truncate"
    value {
      b: false
    }
  }
  attr {
    key: "_output_shapes"
    value {
      list {
        shape {
          dim {
            size: -1
          }
        }
      }
    }
  }
}
node {
  name: "dnn/Cast_3"
  op: "Cast"
  input: "IteratorGetNext:3"
  attr {
    key: "DstT"
    value {
      type: DT_FLOAT
    }
  }
  attr {
    key: "SrcT"
    value {
      type: DT_DOUBLE
    }
  }
  attr {
    key: "Truncate"
    value {
      b: false
    }
  }
  attr {
    key: "_output_shapes"
    value {
      list {
        shape {
          dim {
            size: -1
          }
        }
      }
    }
  }
}
node {
  name: "dnn/Cast_4"
  op: "Cast"
  input: "IteratorGetNext:6"
  attr {
    key: "DstT"
    value {
      type: DT_FLOAT
    }
  }
  attr {
    key: "SrcT"
    value {
      type: DT_DOUBLE
    }
  }
  attr {
    key: "Truncate"
    value {
      b: false
    }
  }
  attr {
    key: "_output_shapes"
    value {
      list {
        shape {
          dim {
            size: -1
          }
        }
      }
    }
  }
}
node {
  name: "dnn/input_from_feature_columns/input_layer/Acceleration_1/ExpandDims/dim"
  op: "Const"
  attr {
    key: "_output_shapes"
    value {
      list {
        shape {
        }
      }
    }
  }
  attr {
    key: "dtype"
    value {
      type: DT_INT32
    }
  }
  attr {
    key: "value"
    value {
      tensor {
        dtype: DT_INT32
        tensor_shape {
        }
        int_val: -1
      }
    }
  }
}
node {
  name: "dnn/input_from_feature_columns/input_layer/Acceleration_1/ExpandDims"
  op: "ExpandDims"
  input: "dnn/Cast"
  input: "dnn/input_from_feature_columns/input_layer/Acceleration_1/ExpandDims/dim"
  attr {
    key: "T"
    value {
      type: DT_FLOAT
    }
  }
  attr {
    key: "Tdim"
    value {
      type: DT_INT32
    }
  }
  attr {
    key: "_output_shapes"
    value {
      list {
        shape {
          dim {
            size: -1
          }
          dim {
            size: 1
          }
        }
      }
    }
  }
}
node {
  name: "dnn/input_from_feature_columns/input_layer/Acceleration_1/Shape"
  op: "Shape"
  input: "dnn/input_from_feature_columns/input_layer/Acceleration_1/ExpandDims"
  attr {
    key: "T"
    value {
      type: DT_FLOAT
    }
  }
  attr {
    key: "_output_shapes"
    value {
      list {
        shape {
          dim {
            size: 2
          }
        }
      }
    }
  }
  attr {
    key: "out_type"
    value {
      type: DT_INT32
    }
  }
}
node {
  name: "dnn/input_from_feature_columns/input_layer/Acceleration_1/strided_slice/stack"
  op: "Const"
  attr {
    key: "_output_shapes"
    value {
      list {
        shape {
          dim {
            size: 1
          }
        }
      }
    }
  }
  attr {
    key: "dtype"
    value {
      type: DT_INT32
    }
  }
  attr {
    key: "value"
    value {
      tensor {
        dtype: DT_INT32
        tensor_shape {
          dim {
            size: 1
          }
        }
        int_val: 0
      }
    }
  }
}
node {
  name: "dnn/input_from_feature_columns/input_layer/Acceleration_1/strided_slice/stack_1"
  op: "Const"
  attr {
    key: "_output_shapes"
    value {
      list {
        shape {
          dim {
            size: 1
          }
        }
      }
    }
  }
  attr {
    key: "dtype"
    value {
      type: DT_INT32
    }
  }
  attr {
    key: "value"
    value {
      tensor {
        dtype: DT_INT32
        tensor_shape {
          dim {
            size: 1
          }
        }
        int_val: 1
      }
    }
  }
}
node {
  name: "dnn/input_from_feature_columns/input_layer/Acceleration_1/strided_slice/stack_2"
  op: "Const"
  attr {
    key: "_output_shapes"
    value {
      list {
        shape {
          dim {
            size: 1
          }
        }
      }
    }
  }
  attr {
    key: "dtype"
    value {
      type: DT_INT32
    }
  }
  attr {
    key: "value"
    value {
      tensor {
        dtype: DT_INT32
        tensor_shape {
          dim {
            size: 1
          }
        }
        int_val: 1
      }
    }
  }
}
node {
  name: "dnn/input_from_feature_columns/input_layer/Acceleration_1/strided_slice"
  op: "StridedSlice"
  input: "dnn/input_from_feature_columns/input_layer/Acceleration_1/Shape"
  input: "dnn/input_from_feature_columns/input_layer/Acceleration_1/strided_slice/stack"
  input: "dnn/input_from_feature_columns/input_layer/Acceleration_1/strided_slice/stack_1"
  input: "dnn/input_from_feature_columns/input_layer/Acceleration_1/strided_slice/stack_2"
  attr {
    key: "Index"
    value {
      type: DT_INT32
    }
  }
  attr {
    key: "T"
    value {
      type: DT_INT32
    }
  }
  attr {
    key: "_output_shapes"
    value {
      list {
        shape {
        }
      }
    }
  }
  attr {
    key: "begin_mask"
    value {
      i: 0
    }
  }
  attr {
    key: "ellipsis_mask"
    value {
      i: 0
    }
  }
  attr {
    key: "end_mask"
    value {
      i: 0
    }
  }
  attr {
    key: "new_axis_mask"
    value {
      i: 0
    }
  }
  attr {
    key: "shrink_axis_mask"
    value {
      i: 1
    }
  }
}
node {
  name: "dnn/input_from_feature_columns/input_layer/Acceleration_1/Reshape/shape/1"
  op: "Const"
  attr {
    key: "_output_shapes"
    value {
      list {
        shape {
        }
      }
    }
  }
  attr {
    key: "dtype"
    value {
      type: DT_INT32
    }
  }
  attr {
    key: "value"
    value {
      tensor {
        dtype: DT_INT32
        tensor_shape {
        }
        int_val: 1
      }
    }
  }
}
node {
  name: "dnn/input_from_feature_columns/input_layer/Acceleration_1/Reshape/shape"
  op: "Pack"
  input: "dnn/input_from_feature_columns/input_layer/Acceleration_1/strided_slice"
  input: "dnn/input_from_feature_columns/input_layer/Acceleration_1/Reshape/shape/1"
  attr {
    key: "N"
    value {
      i: 2
    }
  }
  attr {
    key: "T"
    value {
      type: DT_INT32
    }
  }
  attr {
    key: "_output_shapes"
    value {
      list {
        shape {
          dim {
            size: 2
          }
        }
      }
    }
  }
  attr {
    key: "axis"
    value {
      i: 0
    }
  }
}
node {
  name: "dnn/input_from_feature_columns/input_layer/Acceleration_1/Reshape"
  op: "Reshape"
  input: "dnn/input_from_feature_columns/input_layer/Acceleration_1/ExpandDims"
  input: "dnn/input_from_feature_columns/input_layer/Acceleration_1/Reshape/shape"
  attr {
    key: "T"
    value {
      type: DT_FLOAT
    }
  }
  attr {
    key: "Tshape"
    value {
      type: DT_INT32
    }
  }
  attr {
    key: "_output_shapes"
    value {
      list {
        shape {
          dim {
            size: -1
          }
          dim {
            size: 1
          }
        }
      }
    }
  }
}
node {
  name: "dnn/input_from_feature_columns/input_layer/Cylinders_1/ExpandDims/dim"
  op: "Const"
  attr {
    key: "_output_shapes"
    value {
      list {
        shape {
        }
      }
    }
  }
  attr {
    key: "dtype"
    value {
      type: DT_INT32
    }
  }
  attr {
    key: "value"
    value {
      tensor {
        dtype: DT_INT32
        tensor_shape {
        }
        int_val: -1
      }
    }
  }
}
node {
  name: "dnn/input_from_feature_columns/input_layer/Cylinders_1/ExpandDims"
  op: "ExpandDims"
  input: "dnn/Cast_1"
  input: "dnn/input_from_feature_columns/input_layer/Cylinders_1/ExpandDims/dim"
  attr {
    key: "T"
    value {
      type: DT_FLOAT
    }
  }
  attr {
    key: "Tdim"
    value {
      type: DT_INT32
    }
  }
  attr {
    key: "_output_shapes"
    value {
      list {
        shape {
          dim {
            size: -1
          }
          dim {
            size: 1
          }
        }
      }
    }
  }
}
node {
  name: "dnn/input_from_feature_columns/input_layer/Cylinders_1/Shape"
  op: "Shape"
  input: "dnn/input_from_feature_columns/input_layer/Cylinders_1/ExpandDims"
  attr {
    key: "T"
    value {
      type: DT_FLOAT
    }
  }
  attr {
    key: "_output_shapes"
    value {
      list {
        shape {
          dim {
            size: 2
          }
        }
      }
    }
  }
  attr {
    key: "out_type"
    value {
      type: DT_INT32
    }
  }
}
node {
  name: "dnn/input_from_feature_columns/input_layer/Cylinders_1/strided_slice/stack"
  op: "Const"
  attr {
    key: "_output_shapes"
    value {
      list {
        shape {
          dim {
            size: 1
          }
        }
      }
    }
  }
  attr {
    key: "dtype"
    value {
      type: DT_INT32
    }
  }
  attr {
    key: "value"
    value {
      tensor {
        dtype: DT_INT32
        tensor_shape {
          dim {
            size: 1
          }
        }
        int_val: 0
      }
    }
  }
}
node {
  name: "dnn/input_from_feature_columns/input_layer/Cylinders_1/strided_slice/stack_1"
  op: "Const"
  attr {
    key: "_output_shapes"
    value {
      list {
        shape {
          dim {
            size: 1
          }
        }
      }
    }
  }
  attr {
    key: "dtype"
    value {
      type: DT_INT32
    }
  }
  attr {
    key: "value"
    value {
      tensor {
        dtype: DT_INT32
        tensor_shape {
          dim {
            size: 1
          }
        }
        int_val: 1
      }
    }
  }
}
node {
  name: "dnn/input_from_feature_columns/input_layer/Cylinders_1/strided_slice/stack_2"
  op: "Const"
  attr {
    key: "_output_shapes"
    value {
      list {
        shape {
          dim {
            size: 1
          }
        }
      }
    }
  }
  attr {
    key: "dtype"
    value {
      type: DT_INT32
    }
  }
  attr {
    key: "value"
    value {
      tensor {
        dtype: DT_INT32
        tensor_shape {
          dim {
            size: 1
          }
        }
        int_val: 1
      }
    }
  }
}
node {
  name: "dnn/input_from_feature_columns/input_layer/Cylinders_1/strided_slice"
  op: "StridedSlice"
  input: "dnn/input_from_feature_columns/input_layer/Cylinders_1/Shape"
  input: "dnn/input_from_feature_columns/input_layer/Cylinders_1/strided_slice/stack"
  input: "dnn/input_from_feature_columns/input_layer/Cylinders_1/strided_slice/stack_1"
  input: "dnn/input_from_feature_columns/input_layer/Cylinders_1/strided_slice/stack_2"
  attr {
    key: "Index"
    value {
      type: DT_INT32
    }
  }
  attr {
    key: "T"
    value {
      type: DT_INT32
    }
  }
  attr {
    key: "_output_shapes"
    value {
      list {
        shape {
        }
      }
    }
  }
  attr {
    key: "begin_mask"
    value {
      i: 0
    }
  }
  attr {
    key: "ellipsis_mask"
    value {
      i: 0
    }
  }
  attr {
    key: "end_mask"
    value {
      i: 0
    }
  }
  attr {
    key: "new_axis_mask"
    value {
      i: 0
    }
  }
  attr {
    key: "shrink_axis_mask"
    value {
      i: 1
    }
  }
}
node {
  name: "dnn/input_from_feature_columns/input_layer/Cylinders_1/Reshape/shape/1"
  op: "Const"
  attr {
    key: "_output_shapes"
    value {
      list {
        shape {
        }
      }
    }
  }
  attr {
    key: "dtype"
    value {
      type: DT_INT32
    }
  }
  attr {
    key: "value"
    value {
      tensor {
        dtype: DT_INT32
        tensor_shape {
        }
        int_val: 1
      }
    }
  }
}
node {
  name: "dnn/input_from_feature_columns/input_layer/Cylinders_1/Reshape/shape"
  op: "Pack"
  input: "dnn/input_from_feature_columns/input_layer/Cylinders_1/strided_slice"
  input: "dnn/input_from_feature_columns/input_layer/Cylinders_1/Reshape/shape/1"
  attr {
    key: "N"
    value {
      i: 2
    }
  }
  attr {
    key: "T"
    value {
      type: DT_INT32
    }
  }
  attr {
    key: "_output_shapes"
    value {
      list {
        shape {
          dim {
            size: 2
          }
        }
      }
    }
  }
  attr {
    key: "axis"
    value {
      i: 0
    }
  }
}
node {
  name: "dnn/input_from_feature_columns/input_layer/Cylinders_1/Reshape"
  op: "Reshape"
  input: "dnn/input_from_feature_columns/input_layer/Cylinders_1/ExpandDims"
  input: "dnn/input_from_feature_columns/input_layer/Cylinders_1/Reshape/shape"
  attr {
    key: "T"
    value {
      type: DT_FLOAT
    }
  }
  attr {
    key: "Tshape"
    value {
      type: DT_INT32
    }
  }
  attr {
    key: "_output_shapes"
    value {
      list {
        shape {
          dim {
            size: -1
          }
          dim {
            size: 1
          }
